[PAD]
[UNK]
[CLS]
[MASK]
[SEP]
!
"
#
$
%
&
'
(
)
*
+
,
-
.
/
0
1
2
3
4
5
6
7
8
9
:
;
<
=
>
?
@
[
\
]
^
_
`
a
b
c
d
e
f
g
h
i
j
k
l
m
n
o
p
q
r
s
t
u
v
w
x
y
z
{
|
}
~
¡
¢
£
¥
¦
§
¨
©
ª
«
¬
®
¯
°
±
²
³
´
µ
·
¸
¹
º
»
¼
½
¾
¿
×
ß
æ
ð
ø
þ
đ
ı
ł
œ
ƒ
ƽ
ɑ
ɗ
ə
ʒ
ʲ
ʽ
ˈ
˚
˜
ˮ
ͼ
α
β
γ
δ
ε
ζ
η
θ
ι
κ
λ
μ
ν
ξ
ο
π
ρ
ς
σ
τ
υ
φ
χ
ω
а
б
в
г
д
е
ж
з
и
к
л
м
н
о
п
р
с
т
у
ф
х
ц
ч
ш
щ
ъ
ы
ь
э
ю
я
ђ
є
ѕ
і
ј
қ
һ
ԁ
ա
ե
ն
ո
ս
վ
ր
א
ב
ג
ד
ה
ו
ח
ט
י
כ
ל
ם
מ
נ
ס
ע
פ
ק
ר
ש
ת
׼
،
‪[‬unused0]
[unused1]
[unused2]
[unused3]
[unused4]
[unused5]
[unused6]
ح
خ
د
ذ
ر
ز
س
ش
ص
ض
ط
ظ
ع
غ
ـ
ف
ق
ك
ل
م
ن
ه
و
ى
ي
ٱ
پ
چ
ک
گ
ی
क
ग
च
ज
त
द
न
प
ब
म
य
र
ल
व
स
ह
ा
ि
ी
ो
।
ক
ত
ন
ব
ম
য
র
ল
স
া
ি
ে
০
১
২
க
த
ன
ப
ம
ர
ா
ி
ு
ി
ก
ข
ค
ง
จ
ช
ด
ต
ท
น
บ
ป
พ
ม
ย
ร
ล
ว
ส
ห
อ
ะ
า
ำ
เ
แ
โ
ใ
ไ
ა
ი
ᄀ
ᄁ
ᄂ
ᄃ
ᄅ
ᄆ
ᄇ
ᄉ
ᄋ
ᄌ
ᄎ
ᄏ
ᄐ
ᄑ
ᄒ
ᅡ
ᅢ
ᅣ
ᅥ
ᅦ
ᅧ
ᅩ
ᅪ
ᅬ
ᅭ
ᅮ
ᅯ
ᅲ
ᅳ
ᅴ
ᅵ
ᆨ
ᆫ
ᆯ
ᆷ
ᆸ
ᆺ
ᆻ
ᆼ
‐
‑
–
—
―
‖
‘
’
‚
“
”
„
‟
†
•
…
′
″
‹
›
※
⁰
€
⃣
℃
№
™
ⅼ
ⅾ
←
→
⇒
∆
−
√
∞
≤
≥
─
│
■
▪
►
○
●
★
☆
☺
♠
♡
♣
♥
♦
♪
✅
✌
✓
✔
❤
➖
➡
⠀
、
。
《
》
「
」
『
』
【
】
あ
い
う
え
お
か
き
く
け
こ
さ
し
す
せ
そ
た
ち
っ
つ
て
と
な
に
ね
の
は
ひ
ふ
へ
ほ
ま
み
め
も
や
ょ
よ
ら
り
る
れ
ろ
わ
を
ん
ァ
ア
ィ
イ
ウ
ェ
エ
オ
カ
キ
ク
ケ
コ
サ
シ
ス
セ
ソ
タ
チ
ッ
ツ
テ
ト
ナ
ニ
ネ
ノ
ハ
ヒ
フ
ヘ
ホ
マ
ミ
ム
メ
モ
ャ
ュ
ョ
ラ
リ
ル
レ
ロ
ワ
ン
・
ー
ㅋ
ㅤ
一
七
万
三
上
下
不
与
专
世
业
东
个
中
为
主
么
之
乐
九
也
买
了
争
事
二
于
五
亚
交
产
京
人
什
今
他
仙
代
以
们
件
任
会
传
位
体
何
作
你
使
供
保
信
值
元
先
光
免
入
全
八
公
六
关
其
典
内
円
册
准
出
分
划
创
利
到
制
前
力
加
务
动
動
包
化
北
区
医
十
单
南
原
及
双
发
取
受
口
可
台
号
司
合
同
名
后
吗
员
和
品
哪
商
器
四
回
团
国
图
在
地
场
址
坛
城
基
堂
場
士
复
外
多
大
天
太
头
奖
女
好
如
姐
婆
子
字
学
安
官
定
宝
实
客
家
容
富
对
将
小
少
就
尾
展
山
島
川
州
工
市
师
常
平
年
广
库
店
度
建
开
式
当
录
彩
影
律
得
微
心
必
快
怎
思
性
息
情
想
意
愛
感
成
我
户
所
手
打
技
投
报
持
挂
指
接
推
提
播
支
政
教
数
文
料
新
方
无
日
时
明
是
時
更
書
最
月
有
服
期
木
本
机
杀
来
東
果
校
样
格
業
機
次
正
比
民
気
水
求
江
没
法
波
注
活
流
测
海
清
港
游
点
無
然
爱
片
版
牌
牛
物
特
狗
玄
王
玩
现
球
理
生
用
田
电
町
画
界
登
白
百
的
目
直
相
看
県
真
着
知
码
研
示
社
神
票
福
科
程
空
立
站
第
等
算
管
精
系
红
线
组
经
结
统
网
美
群
老
者
而
肖
育
能
自
色
花
苹
行
表
装
西
要
見
规
视
解
言
語
计
讯
记
论
设
诗
话
请
财
费
资
赌
赛
赢
走
起
足
跑
路
身
車
车
软
载
过
还
这
进
送
选
通
道
邀
那
部
都
里
重
野
量
金
钱
長
长
開
間
门
间
陆
限
院
集
電
霸
青
靠
面
音
预
领
食
香
马
高
黄
龙
ﬁ
ﷺ
ﷻ
ﺍ
！
（
）
，
：
？
ａ
ｅ
ｎ
ｐ
～
🏻
👇
👉
👌
👍
👏
💕
💪
📲
😀
😁
😂
😃
😄
😅
😆
😇
😉
😊
😋
😍
😎
😐
😘
😛
😢
😥
😦
😭
😱
🙁
🙂
🙄
🙏
🤗
🤣
##i
##r
##a
##b
##l
##n
##d
##s
##u
##k
##c
##p
##t
##h
##2
##0
##1
##8
##x
##e
##m
##6
##4
##7
##3
##v
##y
##g
##f
##o
##j
##ク
##ハ
##ラ
##ر
##ض
##ا
##ه
##ن
##w
##е
##і
##а
##ν
##ε
##ι
##ρ
##ο
##z
##ß
##ा
##ج
##ز
##¬
##α
##λ
##θ
##э
##и
##®
##5
##р
##т
##о
##ت
##ل
##ق
##ي
##²
##с
##н
##ы
##ᅦ
##ᄋ
##ᅵ
##ᆫ
##q
##9
##リ
##エ
##ル
##と
##ウ
##ン
##フ
##の
##ち
##ら
##か
##л
##ф
##м
##з
##я
##°
##у
##س
##ف
##в
##も
##て
##き
##る
##ん
##し
##な
##い
##ケ
##ッ
##ス
##υ
##γ
##η
##─
##ц
##キ
##ー
##ب
##х
##д
##ﬁ
##ь
##ᅮ
##ᄌ
##ᅢ
##ᆼ
##ᅩ
##ᅥ
##ᄉ
##ᄎ
##ᆸ
##م
##ة
##г
##ч
##テ
##ネ
##タ
##к
##п
##و
##イ
##チ
##す
##ع
##ר
##כ
##ה
##ı
##に
##は
##ो
##ग
##ی
##😅
##د
##گ
##া
##ত
##ে
##מ
##ג
##ו
##י
##ם
##غ
##ひ
##ま
##ø
##€
##œ
##ظ
##خ
##र
##ी
##σ
##ς
##κ
##ω
##～
##க
##த
##ش
##😂
##→
##π
##˜
##ｅ
##ょ
##う
##ł
##τ
##ک
##×
##ि
##द
##त
##ח
##ى
##ح
##ك
##δ
##¢
##ᄆ
##ᅧ
##ᅯ
##ю
##щ
##ᄂ
##ᅭ
##б
##😁
##✌
##χ
##ด
##ย
##ม
##แ
##ข
##ก
##ร
##บ
##เ
##ช
##ป
##น
##ส
##า
##ว
##►
##コ
##ト
##ѕ
##อ
##โ
##ท
##พ
##た
##く
##さ
##ζ
##❤
##マ
##∞
##פ
##נ
##র
##ল
##ж
##ـ
##あ
##り
##न
##ᄁ
##ᄅ
##ᅳ
##ᆯ
##ニ
##ム
##ャ
##ə
##ʲ
##😊
##😉
##क
##☺
##😍
##ヒ
##ア
##¦
##ค
##ะ
##😆
##ᅡ
##ᄒ
##ᄃ
##ন
##ɑ
##μ
##ᆨ
##オ
##シ
##っ
##け
##ט
##ב
##ל
##´
##ロ
##ᄇ
##ᄀ
##™
##ط
##২
##ノ
##ィ
##め
##ソ
##つ
##א
##ｐ
##ｎ
##ａ
##⠀
##よ
##ص
##ろ
##ふ
##🏻
##👌
##ி
##ர
##ன
##や
##こ
##ワ
##ツ
##メ
##ি
##ম
##ক
##ˮ
##ᆻ
##β
##ת
##ง
##µ
##♥
##を
##レ
##׼
##ナ
##😱
##サ
##🙏
##ล
##ต
##ᆷ
##ホ
##♣
##ᄐ
##ა
##わ
##վ
##য
##¸
##ᅲ
##ᆺ
##ᅴ
##ᅬ
##ᅪ
##ђ
##ไ
##จ
##ミ
##ヘ
##ד
##¨
##せ
##ʽ
##ذ
##ह
##ल
##ァ
##¼
##ᄑ
##ш
##³
##ി
##ョ
##セ
##ব
##ء
##ð
##±
##ब
##æ
##○
##म
##⃣
##ュ
##ᅣ
##¹
##⁰
##£
##モ
##ம
##ா
##ใ
##ס
##º
##れ
##−
##ƒ
##һ
##そ
##ห
##ث
##ͼ
##ԁ
##カ
##प
##ი
##स
##˚
##ъ
##ր
##ա
##ն
##ս
##©
##み
##😎
##व
##ո
##ե
##đ
##ほ
##ำ
##ᄏ
##ע
##ש
##چ
##ƽ
##¯
##♪
##⇒
##φ
##ு
##ப
##😘
##😃
##½
##¥
##💪
##℃
##ˈ
##০
##১
##√
##😭
##😢
##お
##ٱ
##│
##य
##च
##є
##👍
##қ
##ʒ
##😄
##👇
##پ
##☆
##🤗
##へ
##ξ
##ね
##ј
##😛
##ﺍ
##স
##ⅾ
##ㅋ
##😇
##ェ
##💕
##ⅼ
##þ
##🙁
##ª
##●
##✅
##ज
##😀
##ק
##え
##№
##♦
##➖
##😋
##♡
##🤣
##🙂
##➡
##★
##👏
##😥
##≥
##¾
##■
##≤
##∆
##♠
##ɗ
##👉
##▪
##ㅤ
##🙄
##✔
##😐
##ﷺ
##✓
##📲
##←
##ﷻ
##😦
##an
##er
##en
##ang
##ar
##at
##ah
##ak
##al
##in
##as
##em
##am
di
##ya
##kan
se
men
##tu
yang
##un
##da
##el
##ik
##is
dan
##eng
in
##ap
ber
ke
##ga
##ta
##il
mem
ter
##nya
##ing
##di
##bu
##es
##ari
##on
##us
per
un
an
##engan
dengan
##tuk
##ti
##ur
ini
##ih
meng
untuk
##id
##ba
##or
##it
##ul
##ja
##um
##uk
##ara
##akan
##gi
dari
##ek
##ai
##ada
##ung
sa
##asi
##et
##alah
##eb
ba
##si
##alam
anda
tid
pen
##ain
##ir
tidak
##ol
##im
bis
ju
##ut
##anya
##pat
ad
##om
##ama
##up
pr
##ud
itu
dalam
bisa
mer
akan
##per
##se
pada
##ukan
pem
##ia
##wa
##ok
mas
kar
adalah
kam
##ita
##uh
##amp
mel
##angan
##ri
juga
sel
##yak
ak
##eh
ata
##jadi
##but
ada
ban
##ena
bah
sem
##udah
##ali
atau
dap
##ebih
har
##baga
##ad
dapat
##atu
peng
##ika
##atan
ap
pro
karena
##ata
##ber
##ana
or
sek
##bagai
lebih
kita
ol
##asa
##ot
##ua
##sebut
saya
al
la
kem
menjadi
##ter
##iki
orang
ser
meny
##elah
oleh
sudah
##ala
##inya
tah
##ent
banyak
tersebut
##alu
##ati
ja
sang
memil
##apa
##eg
##eka
##os
##akukan
##lah
##and
lain
##gun
##isi
##uan
##aj
mereka
##aran
si
satu
sangat
sebagai
hal
kami
##api
membu
mak
saat
##amb
seper
##ab
##aw
kel
bagi
##ep
ind
##cara
bar
tem
jika
seperti
##alan
memiliki
kep
##tr
seb
ag
bahwa
sen
20
##ub
bel
##angk
kon
##ikan
memb
##ant
harus
##aya
pas
beb
tahun
menc
##ed
baik
ma
##dapat
##gan
##ahan
##ingga
##gunakan
##diri
ker
##itas
##ip
hanya
ben
##od
dil
##ay
##asil
##og
##aan
dik
##esar
membuat
sed
saja
aku
beber
##lin
para
beberapa
set
dis
seh
##angg
nam
##duk
ing
##anj
pert
anak
kamu
ar
##ob
##ingk
bi
as
bu
maka
##entu
pel
##op
##uar
##ones
##ihat
on
##ungk
indones
##main
salah
ket
berk
indonesia
dia
tet
secara
##annya
##end
man
tu
cara
bers
samp
namun
member
tr
##ota
pun
##yar
##tas
201
##aman
##line
##tun
mengh
wak
tak
tan
##ew
kom
##orm
hari
##ju
su
##ag
##oh
##bat
telah
##su
terl
masih
online
##angkan
kali
semua
##asan
##ac
##buh
rum
besar
##ungan
##ong
lagi
am
##ikasi
##ungkin
menggunakan
##tem
dim
melakukan
kec
produk
##epat
apa
waktu
##arkan
##tus
jadi
setelah
##ind
berb
##orang
##emb
ku
##hir
##angs
mendapat
##ian
ingin
##int
##ini
rumah
tapi
sampai
sendiri
baru
dip
ia
seti
mul
##aitu
harga
kes
yaitu
sebu
serta
##ka
pes
##entang
##ses
sama
tempat
inf
##ting
sebuah
##af
##tuh
##00
be
ting
ang
##edi
##arang
neg
##usah
is
##tif
memper
##tur
sehingga
kh
sebel
##anan
tentang
so
##uran
sebelum
makan
##lu
sesu
##upakan
ti
##gr
pemb
ketika
##idup
##uhan
des
##apan
##ic
##pa
agar
atas
bukan
##tar
##ui
mes
##alau
##ingkat
##unj
lainnya
##ow
mungkin
um
seba
re
dir
setiap
##ukup
berbagai
mend
sekali
sej
merupakan
##na
##ku
sis
tim
kepada
mendapatkan
berh
war
benar
ka
memberikan
memang
##akat
##onal
pal
min
pern
##tor
ked
tentu
res
##upun
##ingan
peny
dilakukan
##udi
cukup
kota
##unya
dib
en
##erja
##jalan
##fa
##ilih
bagian
mudah
pul
selain
##apkan
##adap
seorang
##atakan
##eli
##eda
##imp
##unia
kalau
##ahkan
##angsung
us
seg
##ola
mus
##adi
lalu
##ec
##gu
keb
##ra
tetapi
##uti
##ulan
co
##ima
##ila
dunia
terjadi
##arta
sp
sep
belum
##engk
permain
##ulit
terb
judi
perlu
air
mulai
kur
hingga
##yarakat
hasil
##enis
##ont
permainan
pan
masyarakat
diper
##arnya
##aks
bahkan
dit
kemb
##ormasi
##aku
memba
##inta
##ca
##mas
##ekerja
##alnya
keluar
akhir
##le
com
paling
diri
##angun
##etah
kata
dua
##ami
ek
##esi
##ni
menur
##era
terh
##atang
##gal
##faat
gr
buk
bl
##elas
st
##anjut
##aki
##imana
id
##akin
##awat
sekarang
mod
da
mana
##usia
inter
melihat
jenis
##tik
##arah
##tara
kemudi
pernah
dem
##tung
berl
##eri
kemudian
##enal
bert
langsung
pers
kr
##ensi
##ulu
keh
tanpa
memp
##au
situs
##tikan
kembali
##akai
informasi
selama
##alui
kas
dep
##ulis
##ikut
##antu
sesuai
##mu
selalu
pertama
li
sedang
berp
##ilan
tinggi
tek
##usahaan
melalui
hidup
terk
pemer
komp
##man
bermain
terba
sh
##unc
ch
suk
mah
##caya
perusahaan
##likasi
##ver
##li
##asanya
##umlah
sm
nya
kese
berikut
bersama
negara
tetap
##anc
ken
jam
##ib
baga
##nis
##ikir
##wah
##yakit
jawa
##ans
jalan
##yata
jangan
mur
ya
pemain
##bab
kons
pend
nama
sekit
tubuh
##gitu
sering
kal
penyakit
sur
aw
terbaik
##gus
uang
pe
pilih
umum
##ilai
##erah
em
begitu
obat
##olah
proses
masalah
##uruh
ay
suatu
pol
##gian
penting
terhadap
ng
berd
##aha
semakin
barang
masing
mar
##alis
menem
kecil
##ch
tok
tar
dih
gun
cepat
tahu
##akah
memilih
##tim
##ampu
antara
##ons
tik
##ro
berada
bagaimana
jak
##oker
terus
##alitas
##ilah
angg
menu
pl
##bur
gam
##est
##usus
##ani
sum
pemerint
##ajar
did
##butuh
membantu
##uj
##oleh
menurut
wan
pos
manusia
band
bahan
intern
fil
lama
##eksi
19
digunakan
kedua
menj
ram
sekitar
luar
th
##ambil
##inan
mil
web
mengen
khusus
mau
kan
##etahui
masa
ins
teman
aplikasi
makanan
ru
wanita
masuk
menga
de
tiket
##olo
lap
##ump
sup
me
##wan
mat
mis
##gram
tel
##obil
##tai
bulan
lem
##any
##sa
kerja
kegi
##engah
##aikan
sebelumnya
jakarta
##edia
tangg
menar
mencari
##art
##alaman
allah
kegiatan
mobil
ik
##uas
im
##isata
biasanya
ut
10
berbeda
##juan
sistem
ny
keseh
##asis
rp
##buat
hi
##tinya
ibu
##tri
mengatakan
##anjang
penggun
ri
bisnis
##one
##ina
kl
##erita
mampu
##mi
br
waj
apakah
maupun
mesk
tekn
str
pasti
kesehatan
mu
##aknya
kek
##osi
sak
biasa
tamp
##ikit
menye
seluruh
##ungi
perk
diber
##ori
menarik
sedikit
sal
agen
data
##tian
tepat
merasa
daerah
jauh
datang
##ore
bat
##engar
kurang
blog
##atif
kulit
##utan
bola
##emp
mener
ters
murah
##ungg
##dikan
lok
ul
##upa
ef
##tiv
##uru
buat
and
##oto
meningkat
kond
##enc
pemerintah
##ode
hati
2018
adanya
tern
il
##tungan
pak
##oba
akhirnya
bad
diba
##ov
##empat
menja
##atis
rasa
tip
program
##asional
##iknya
##ologi
##ck
##ej
##alami
bentuk
terp
uj
##ambah
bak
poker
pih
##usi
##aja
##gas
jelas
##akhir
##apai
trans
jumlah
sejak
kalian
memas
##ikian
##uhi
mengenai
##ger
##ban
##ate
##aksi
bahasa
pad
mata
keluarga
##entara
depan
dimana
penc
##re
##aru
##sia
up
##angkat
pendi
sekolah
fak
fi
wisata
tentunya
lakukan
tur
##anding
warna
punya
bila
tujuan
bagus
##uc
ac
termas
##atkan
eks
termasuk
kebutuh
bekerja
##awan
##omp
##ort
din
seben
##ite
##iaya
kat
demikian
##ikm
##ilang
##engkap
disebut
cont
bay
bawah
te
sebagian
kondisi
kebutuhan
##jual
##ukkan
tangan
terlihat
##ph
##amin
##angi
##atur
##hati
terlalu
kabu
##ihan
met
##paten
nilai
pilihan
desa
buku
kap
##ubungan
mengg
##und
media
badan
##irim
pendidikan
usaha
kabupaten
pekerja
hadi
##ft
##sedi
sk
##lo
her
sil
##anti
bur
uk
sat
dic
op
##lam
sebenarnya
##ekat
ger
##buk
sementara
ot
##utus
belajar
##otor
ternyata
##tul
pria
##ukum
##oga
kartu
sese
mengalami
200
tinggal
jar
sebab
000
toko
##angka
pihak
kepala
go
utama
berat
##asiswa
##usan
##percaya
game
##sial
acara
efek
##ino
anggota
tengah
##angunan
##pr
##ist
awal
sy
le
##ibat
taruhan
dr
trad
##ubah
##babkan
##ongan
segera
bun
terdapat
menemukan
##erta
kor
gu
seseorang
lay
malam
tiga
sakit
el
prof
gamb
kol
##asar
bal
##ungsi
ah
biaya
##eo
##itik
##apun
hukum
##angkah
mac
tanggal
pri
dok
##bul
contoh
##idang
alat
##tikel
##kannya
keber
##uanya
mengetahui
##adang
##sim
menunj
##amat
aman
pesawat
pengh
##min
##uli
nah
dulu
yak
##omb
##untungan
##dukung
perjalan
daf
desain
##tup
pus
at
semoga
foto
mo
sesuatu
jasa
ses
sedangkan
par
##anda
##gak
##phone
artikel
##uduk
##ula
misalnya
na
ud
manfaat
##anjutnya
meningkatkan
##etak
tingkat
perjalanan
##abila
berhasil
bo
internet
pula
##tuhkan
ro
kualitas
##embangan
suka
apabila
##uncul
##engg
siap
wil
beras
mesin
tert
yakni
nom
kehidup
##agi
##daya
##utih
wajah
##enang
ditem
##war
daftar
##ikat
##umsi
##jakan
##imb
film
lingk
##ampuan
lin
pasar
##onom
##iri
##pun
dirinya
ab
mahasiswa
sumber
dig
##angga
negeri
##andingan
##ma
mal
membeli
rek
terj
kemen
##ingin
##pl
kini
pemba
webs
segala
##unan
layanan
tidur
##ve
##alahan
dah
tuhan
to
##asarkan
peneli
organ
kemampuan
laki
##hi
sosial
##adaan
karya
juta
say
mencoba
##asikan
pin
##unjung
##unyai
selanjutnya
siswa
kehidupan
##gris
akun
sah
##ayah
warga
##aranya
##teri
gi
kuat
website
cal
##ampir
berjalan
inggris
##anakan
yg
keuntungan
mempunyai
##umen
langkah
siapa
##ompok
##ulai
islam
##utama
##ikuti
12
hot
##uka
kelas
##asakan
muncul
##fikasi
##atas
ilmu
##tan
15
mencapai
keti
panjang
pekerjaan
##asaan
terakhir
macam
alami
buah
##tua
terbaru
er
##araan
keter
tiba
##embang
komun
##fer
ruang
tum
teknologi
##jak
##ipun
##ci
tanah
bidang
dom
##ohon
terutama
pot
lokasi
guru
vid
fitur
of
meskipun
memen
olah
##ord
gol
diberikan
##tal
##buhan
sehat
ur
gambar
terpercaya
##empatan
##aris
gel
resmi
##anja
##ern
seri
bank
##itan
##buatan
##badi
##arti
##alkan
model
##amu
itulah
##me
the
gen
po
ob
motor
posisi
##asilkan
pertandingan
pesan
amb
video
##ainkan
kant
##get
pres
##emen
satunya
wilayah
tua
put
##ker
##yat
##ran
##insi
kend
berarti
##inasi
##ira
darah
dibanding
pakai
es
mengambil
perm
##tis
sebaga
pengguna
membutuhkan
pener
kamar
##lik
nomor
##usaha
##entuk
bern
kont
bet
##estasi
##lukan
##fat
##isik
dibuat
jep
pt
##entukan
smart
sini
##ungguh
##ikmati
pengalaman
##av
##iden
batu
berdasarkan
##co
oper
belak
##uman
spesi
##inggu
pergi
sin
memberi
sta
##isasi
peserta
gunakan
muda
gak
mengel
membawa
bek
ataupun
sulit
hotel
nyaman
rak
kebi
bayi
kelompok
sun
dew
##alagi
uni
##angat
##raga
menunjukkan
berasal
ukuran
apalagi
daya
##to
ikan
tulis
keku
menuju
2017
kab
lingkungan
minim
##sep
lah
##sedia
jer
mengk
##ard
##istr
##cok
penelitian
##amanan
##uter
terka
##ess
lihat
##ket
sol
jan
hubungan
hampir
##empuan
##unggu
umumnya
pop
ok
##bung
nggak
menyedi
##urkan
perempuan
##amatan
cer
gratis
30
kesempatan
dekat
berman
putih
bum
rep
terkait
menjaga
alam
rambut
ekonom
membaca
pantai
pasangan
kand
##aksanakan
barat
##anggap
nasional
##ustr
##tivitas
menulis
jual
lengkap
##abis
eng
sar
##tum
penuh
##hatikan
bermanfaat
##lan
sebesar
und
##elaj
diter
##bal
##buka
dasar
##own
##roid
##vers
##lim
pikir
musim
dikenal
tertentu
pi
##ond
##ingat
jawab
menang
##eks
mening
menerima
ham
pelay
lagu
tamb
hak
ko
##agam
kamp
kasih
terlebih
berm
menyediakan
##takan
berj
do
menyebabkan
pemil
cerita
##atasi
diant
kasus
inv
##uma
pertanya
pulau
11
suara
##angnya
mad
cinta
berhar
bin
fl
sam
terc
calon
##omo
##ili
dahulu
sisi
dapatkan
ji
menit
laz
menjalan
angka
pusat
sus
usia
##ura
android
100
##te
aktif
kantor
bunga
nanti
luas
##ea
akibat
pat
pember
penj
##unjungi
menger
rel
memer
dana
lanjut
lew
mengikuti
faktor
##rah
##vi
dokter
##epas
cocok
##isah
##angsa
##impin
alasan
##uni
tugas
lat
perb
pand
no
menyel
tips
##anggan
ung
##enti
##ebihan
tersedia
hadir
timur
meninggal
##anyakan
percaya
##ahami
indah
##uksi
bon
disini
##uri
membuka
smartphone
fasil
menyer
##ell
surat
olahraga
meski
##antai
##encana
sab
univers
##ki
##uler
mengur
##ubahan
##elaskan
##bad
pertanyaan
rata
ver
penggunaan
agama
ide
pribadi
minggu
kemenangan
pet
perubahan
menghasilkan
beli
ib
ayam
cat
med
semuanya
##aian
##iran
##ho
##aih
terd
maj
bersih
##bak
##opi
pagi
ikut
##erh
penye
jad
ekonomi
##ampak
##ender
##fi
jepang
coba
##gh
##pati
bertem
tab
##arian
##ebar
diatas
##ahal
ketua
##dul
fasilitas
sana
##load
perangkat
fr
##gabung
kontr
##anfaat
bantu
sih
##usnya
menurun
##onton
ta
##asaran
##esan
silahkan
pembangunan
##udara
sw
18
ped
bang
##ator
fungsi
perkembangan
diketahui
##ook
##ogel
mendukung
##yek
##asir
##uang
asli
sejumlah
##antik
supaya
naik
mi
profesi
inilah
prov
##yah
menya
##apak
membangun
pelayanan
komputer
dibandingkan
lewat
##oran
##ity
##isan
dij
##akter
##ulasi
main
##ev
rem
##tah
goog
kemungkin
##rip
##endah
jaringan
penulis
panas
modal
##anfaatkan
menikmati
materi
belakang
soal
lazada
kekuatan
memakai
##iptakan
16
##anggung
##atnya
keu
metode
paket
00
ra
asal
togel
presiden
pelanggan
##ergi
gad
menyebut
kaki
##onsumsi
keras
empat
padahal
keadaan
seles
ribu
tanda
##ust
bandar
mew
berkembang
##ilis
bangsa
boleh
##awarkan
##antinya
##ill
kemungkinan
##erhana
rah
##buran
khususnya
teknik
mengapa
dise
terdiri
2016
jat
google
##ember
sehari
ni
karakter
merah
##enaga
yo
produksi
apapun
gej
##ayu
form
##ganya
berf
keuangan
disk
pembuatan
pelat
sim
penyebab
meminta
##kah
amer
katanya
mengand
##tion
sub
##ry
##ukul
prak
dos
hit
##embangkan
##etik
situ
terkenal
cuma
##etahuan
##ahaya
##gantung
25
kenapa
##ash
aj
##wal
##ilkan
##gai
##asih
terasa
berupa
14
herbal
baca
##alaupun
##ampaikan
market
##ack
turun
tind
ps
##uarkan
mengin
bus
indi
##arapkan
du
berita
dag
##icara
ketiga
log
selatan
lupa
##antan
sederhana
##eta
tanaman
##anyak
teg
sukses
##ail
##aba
##ens
buruk
for
minyak
aktivitas
kau
pub
##daft
##aturan
tumbuh
mati
13
##ekan
sebaiknya
bakal
muslim
duduk
sik
##ampilan
berharap
fac
berku
tenaga
hija
##ona
demi
##ital
duk
unit
##gn
##ambahkan
admin
selesai
berusaha
mengatasi
bebas
##port
##ingg
tun
terima
kej
pengetahuan
akses
kanker
##iah
##ha
##awasan
artinya
universitas
wajib
sekaligus
pastinya
##wab
##asinya
memenuhi
manaj
##enangkan
politik
ex
sepat
hp
##indari
mempr
halaman
##ownload
berba
ayah
##iter
musik
pay
pendapat
menjadikan
##ustri
cari
dimil
nantinya
lima
rendah
##rasi
17
##baikan
gejala
amerika
tas
antar
ir
##timb
##obatan
laut
sejarah
aja
organisasi
##pada
##gerak
kecamatan
kadang
##aksana
kak
walaupun
kos
provinsi
##ase
##enakan
##edit
gaya
bonus
ga
pengunjung
##por
dilihat
senang
penju
##pur
##amanya
konsumen
pemilih
##antas
bandung
##iksi
mengaj
##wi
##pek
memperoleh
banget
budaya
##ulkan
##okok
rut
maksim
tot
terja
##adapi
dibawah
##oll
##utusan
pengobatan
sempat
menentukan
merasakan
konsep
bali
##ei
int
industri
malah
##men
##uki
gl
sambil
unik
selamat
stand
bes
rakyat
dar
dipakai
##res
berpikir
tiap
bul
bangunan
##emat
ph
ev
##eran
##ulang
bantuan
tradisi
menjelaskan
vir
berikan
kendaraan
hitam
meja
pah
##abat
##bo
posi
parta
dianggap
##tern
namanya
ruangan
##puh
api
##ongk
operasi
##all
##usak
stu
kandungan
##inginkan
lo
dijual
##iku
mengak
tulisan
san
##ujud
cantik
##po
##awatir
menawarkan
##ogr
berubah
sl
bernama
rup
gag
##form
area
##utar
tambahan
memahami
peluang
##emuan
menyatakan
dibutuh
arah
bertanya
nov
##ace
##askan
berc
sebanyak
berkualitas
sehar
##erasi
##engkapi
pengel
##bus
saling
##acam
##ice
partai
keamanan
##ahas
##yaran
##ingkatan
ki
gunung
sc
pap
dibutuhkan
##egah
##ihkan
suami
##inal
kayu
50
ditemukan
utara
jur
ali
berkata
24
berlangsung
bint
jal
kopi
mir
kelebihan
##abi
##elanja
kalah
##isme
##ester
kad
dijadi
versi
##edar
korban
##ela
menunggu
##mad
inginkan
perhati
##ps
anti
merek
tadi
##okus
pukul
sifat
he
bergabung
pembayaran
##aji
##top
positif
bertemu
angk
##ef
layak
transaksi
dijadikan
sepatu
##pan
##atal
##ategi
##uda
beragam
persen
##tunj
##ediksi
##obat
menurunkan
##ustru
isi
milik
##ikah
justru
yakin
ras
wakil
pu
laga
##iks
lembaga
resep
pil
dimiliki
strategi
##tual
##wak
##isti
##ilangan
profesional
##ukai
##daf
tokoh
proyek
didalam
##ganti
norm
mengandung
bumi
ingat
##ine
reg
##omend
##ukur
potensi
tampil
bir
perbeda
##ilangkan
##engaruhi
komunikasi
perju
liga
ist
bas
bab
layar
menambah
kul
##entar
dimulai
##go
jadwal
ha
udara
ketah
##ubungi
##orong
##cing
2015
terbesar
kebijakan
kut
##ewa
##unci
##ainya
info
##daftar
sd
##awatan
sungguh
##ebook
diperlukan
##epatan
perhatian
cl
##gaan
dpr
##anjutkan
atur
##olong
seni
##tugas
##pir
##ers
##ungkinkan
vi
kun
didapat
diharapkan
##kir
keputusan
dewasa
pemilik
hend
pola
##bulkan
dinas
##alisasi
tipe
##onsel
banyaknya
##ubung
internasional
khas
kebanyakan
pertum
##let
mengurangi
udah
samping
dita
kp
menyenangkan
modern
##iau
##untung
ulang
hand
##ambat
##ts
##ji
istri
##olak
semangat
memulai
##ajak
kok
ahli
emas
menim
menciptakan
##utuskan
takut
efektif
199
ponsel
sul
##ampilkan
wah
##uari
dikatakan
file
##jek
upaya
cas
maksimal
##tarik
##zi
##uali
uc
raja
tersen
sepak
top
agus
sad
jok
tindakan
pendek
mahal
##inginan
mendengar
daun
perc
peri
tau
pintu
##ation
##han
menambahkan
mengingat
##daftaran
##atus
##view
kalangan
muh
##air
investasi
total
##andang
pendaftaran
populer
download
pulang
meraih
##iman
car
##arakan
kompet
berbelanja
solusi
##urangan
kelamin
##iko
sb
lokal
##dag
kapan
##esu
sepanjang
##vel
energi
cr
menjual
##osit
tampak
sebagainya
##vid
iklan
jiwa
suraba
##bern
sebut
ayat
surabaya
##inc
sebagaimana
memungkinkan
kejadi
menjalankan
berapa
bergerak
khawatir
agak
perbedaan
trading
bib
baju
##ual
##dir
pastikan
mengenal
kisah
sing
tamu
tahap
perawatan
ged
jarang
##ows
##anggu
pengg
penderita
##ne
memastikan
pertumbuhan
kalo
super
studi
bp
tangga
diantaranya
listr
##ikin
berg
bupati
daging
##isten
benda
##gikan
##asitas
domino
##asilan
berdiri
gubern
##purna
##arin
##amping
syar
kalim
gubernur
dukungan
##tut
pakaian
awalnya
jatuh
terbuka
memanfaatkan
pemimpin
asing
promo
simp
##opa
cap
minum
lum
hilang
beda
gem
ii
seharusnya
##ue
fisik
menyimp
##egang
pec
tergantung
##oduksi
term
pelaj
##th
berbicara
cem
bersi
##oro
listrik
taman
2014
kre
##esaikan
spesifikasi
kac
##dak
21
##angkau
terbuk
##ge
poin
kejadian
##hl
rasanya
##bah
kamera
kesel
facebook
berikutnya
##tra
pertemuan
##ware
##ce
lahir
der
hasilnya
meninggalkan
mari
perp
terbukti
pohon
##ebat
tekan
##ono
dikar
kehilangan
karyawan
peraturan
pemilihan
pikiran
##oni
##sikan
bukti
kutil
penduduk
mengeluarkan
enak
leg
harapan
jalur
##iring
##tulis
##tail
hamil
dilaksanakan
pernik
link
aturan
undang
disebabkan
kunci
nabi
menghilangkan
jantung
mengembangkan
melay
##obati
##dian
##arankan
burung
##eter
miliki
bapak
##ferensi
daripada
titik
rencana
new
yes
berbagi
memutuskan
keduanya
berlaku
penjualan
komunitas
pengembangan
kesalahan
butuh
##jid
##oma
menyus
por
ketahui
klik
hijau
##gur
diam
##siapkan
sempurna
sip
mom
##etapkan
##rik
##jo
ditu
pasi
##uliah
laporan
rap
gerakan
pelaksana
##engkapnya
##ark
pemes
mencegah
huj
net
dikel
sikap
wh
tampilan
publik
matah
##isip
##aruh
##irkan
siang
lel
berhubungan
deposit
balik
habis
##eja
perl
##entasi
pemesanan
##yo
serv
terg
jangka
mengunjungi
nasi
manajemen
lu
##ayan
generasi
minuman
##ulus
pernikahan
yog
penyel
dalamnya
rutin
ciri
terbuat
kereta
ringan
matahari
keinginan
email
##guna
##omosi
sesungguh
##isa
peran
gar
tertarik
guna
##angkap
sahabat
##bi
##bar
terkadang
jarak
mon
con
##aka
##no
kim
sesungguhnya
##elasan
dl
berhenti
posting
zaman
##ish
##aransi
diambil
melawan
mit
##ass
yah
##bil
##isiko
direk
membayar
##za
##urus
##uji
hew
##asnya
##omba
##ff
##der
##akibat
perut
kuliah
##yataan
off
ulasan
fokus
##uktur
dikarenakan
ujar
memainkan
##urah
out
diberi
singkat
kursi
bing
sobat
##pon
laptop
##impi
anaknya
kaum
pab
pembel
vari
belanja
##are
mengaku
pp
sebal
disel
##ret
ed
sma
tes
##omatis
##orit
mandi
infeksi
##urat
##sh
##alikan
peningkatan
##elajaran
##resi
kin
selengkapnya
diser
menimbulkan
nyata
##osok
menjawab
bangun
ungk
##iksa
jo
##iling
membuatnya
mengirim
standar
##buhkan
kapal
tradisional
##warna
##daknya
permas
kira
pembelajaran
##aksud
##ins
lantai
target
##yang
susah
situasi
pur
##sud
pelaku
menutup
hat
wal
usah
membahas
hujan
menghadapi
##asana
pemerintahan
dipas
##sur
cek
##ns
##olog
##oper
penger
##sual
kapasitas
eropa
jum
seng
perasaan
normal
hewan
detail
##itung
bukanlah
mengubah
melew
sebaliknya
kering
diterima
2013
tema
setidaknya
prod
anggaran
lahan
22
review
##ham
del
digital
play
gue
##orex
otomatis
bintang
sedi
terkena
melaksanakan
pekan
catatan
makin
sungai
gadis
##cak
berka
lawan
soft
##itakan
tni
pemuda
rasul
mendatang
masjid
berwarna
malang
##do
gangg
##aksa
menyampaikan
analis
ambil
dilengkapi
camp
kaya
arti
##indah
tv
##badah
bilang
caranya
syarat
menikah
sec
kekurangan
terjad
cab
imp
muham
##iti
suasana
kredit
bit
melayani
melainkan
istilah
dipr
hon
##ton
##mainkan
##pirasi
##tasi
latihan
gigi
wasir
##waj
rupiah
##ork
penerb
rag
aceh
aksi
##iar
gangguan
klub
kepad
remaja
otak
raya
hadiah
kabar
gedung
pajak
red
vit
juara
##awaran
##ower
##tifikasi
prediksi
ditaw
kore
##ary
40
##isk
##impinan
bertahan
##inding
dikirim
##utr
##anto
kode
lapangan
penampilan
individ
saudara
berkaitan
pac
##ancar
tahan
pk
yesus
23
pasal
##yum
##batas
garis
entah
teb
##atih
##angani
ne
mic
##ampang
kecuali
##baiki
elek
bangk
kari
fas
altern
umat
hutan
segi
penis
##pe
##atat
##uskan
##tp
adapun
##bel
##yal
##zin
memerlukan
##ayakan
##egori
hid
##oritas
##50
asia
mengatur
berani
bersifat
##rat
meter
virus
susu
nas
persi
kecepatan
##jar
dimainkan
menun
##udahkan
forex
berguna
pa
tengg
mencer
##erang
ht
##esuaikan
piala
permasalahan
##jas
lemak
dingin
cel
sepeda
berisi
amat
ditawarkan
temukan
##yi
manis
mengisi
tanggung
bos
trav
kawasan
##uransi
##arat
nan
tanya
berfungsi
##ungkapkan
##tujuan
ho
seksual
tant
teks
wa
garansi
kemarin
fir
mempengaruhi
##ograf
non
menyad
fo
##place
mengad
baiknya
##uci
wib
diskon
abu
optim
bb
tenang
batas
peristi
jawaban
##elar
memenangkan
##enuh
konten
mengerti
diak
gatal
penjelasan
bag
mengobati
##amaan
ip
korea
casino
##ening
harganya
rat
##yakarta
risiko
##ullah
##ahun
##epon
agustus
zat
medan
liburan
bikin
ungg
om
minimal
periode
##itis
##gaw
##uhkan
mala
marketplace
kebiasaan
sayang
asuransi
##etul
kesulit
dini
den
##ug
##toran
##aim
pelajaran
serius
##sihkan
##inj
##ustom
saham
terting
kategori
berakhir
terjadinya
betul
sepertinya
you
bakteri
##wisata
konsumsi
pemand
penjual
dampak
##anian
##asia
sadar
peristiwa
berusia
dll
##indahan
tambah
jari
petugas
luka
km
asam
tekanan
mimpi
real
kot
pembelian
##itkan
menampilkan
kesulitan
pasien
500
berju
##itah
wi
das
##ril
##iner
perdag
saw
maksud
##ambung
elektr
##akar
##sel
dimaksud
##sir
pari
menteri
memudahkan
##bang
mirip
part
perdagangan
gagal
tw
smp
membentuk
mantan
##elajari
yogyakarta
##emi
alternatif
ramah
hendak
##ipta
pelatihan
telur
peral
sud
melanjutkan
judul
##tivasi
##age
bingung
##akaan
##airan
perd
umur
terjangkau
##batan
menyelesaikan
grup
teh
##akibatkan
seks
tri
menyebutkan
##uga
buka
##iriman
ragu
##eku
sir
##entingan
unsur
sekedar
ujung
##jasama
##apnya
##isipasi
keper
membuk
##oli
dinding
##ema
##ukaan
af
##alahkan
##ampung
##ilaku
terletak
bertambah
##aring
##istrasi
perbuatan
bekas
aspek
memperhatikan
fakta
miliar
dek
mulut
##abiskan
serangan
gampang
ditambah
fav
polisi
stasi
##tir
berbahaya
##patkan
individu
##ment
diperoleh
##obet
cita
kerus
fre
##app
terbatas
##owi
komisi
##edakan
mandiri
##amkan
##ee
kanan
kinerja
menghindari
##kau
naf
##enya
sampah
##unuh
dipilih
biar
rusak
perang
##ovasi
menyimpan
kebu
aneh
mesti
##date
diet
sebelah
##ner
ge
custom
##sinya
pengaruh
mempert
gereja
##indungi
##tuju
alamat
pelaksanaan
melewati
desember
stasiun
##okan
beliau
kue
##egan
glob
mei
baw
##ten
##yu
##wajib
segar
blogger
os
##nas
maaf
##entuan
##ebaran
##olan
read
##idah
berper
semacam
##inggi
jah
konf
##ebr
##ater
##lind
sams
hebat
engkau
##her
##ular
##ental
peralatan
menyadari
kepentingan
##intah
dp
wind
level
disedi
##untungkan
melakukannya
##nam
travel
##tusi
##antikan
disediakan
##dur
puas
menjalani
##erd
wisatawan
tata
##intaan
penur
##adilan
can
payudara
##omi
##tansi
##erai
pembaca
alias
kemati
ibadah
halnya
##insip
sarana
##coin
sektor
psik
klas
##elang
##itasi
##gang
madr
vitamin
ujarnya
juni
##ly
diantara
kepercaya
belanda
dibangun
rekan
asi
ars
ten
pabrik
disi
##anggil
ris
maju
##orasi
bulu
memasuki
saluran
tari
berbasis
bot
jokowi
##dirikan
timbul
kampus
minimalis
it
tersendiri
cender
puncak
favorit
##eien
prinsip
sangatlah
kerusakan
##omendasikan
jerawat
##jah
ambeien
nus
##unjungan
tuan
sbobet
staf
mengkonsumsi
pam
kompl
lumayan
was
##busi
gor
kontrak
restoran
##osis
mengajak
membuktikan
28
##dik
kain
2012
jog
berkunjung
mendorong
deh
contohnya
bed
penghar
menyi
##orkan
##engaruh
##onen
##simp
##umpulkan
##onis
tomb
08
detik
lomba
may
pemandangan
menghabiskan
##ingkan
kimia
27
ujian
juli
kepercayaan
##iksaan
roh
ampuh
pelatih
cenderung
##asannya
doa
kotor
kris
komentar
##ght
pd
distri
resiko
peman
##ahankan
##aing
menyukai
##ome
status
skor
##jikan
black
putri
bitcoin
kunjungan
tuk
pengiriman
sayangnya
##tek
sya
serikat
cor
lampu
setengah
software
##ick
kolam
bertanggung
##ys
menurutnya
##yan
##ex
dapur
kompetisi
pc
emosi
dokumen
keterangan
mp
enam
##uat
##ull
##odi
mor
##ww
komponen
menyem
hangat
##ros
##ambut
pemakai
##usen
menguntungkan
hy
insta
setempat
terang
sumat
mendaftar
bud
suh
##cel
pemas
pulsa
samsung
##alian
otot
mengant
minta
kontak
arab
##asiat
radi
rom
penurunan
maret
plat
dasarnya
##ral
pengertian
gula
kematian
sekian
menerapkan
harinya
peda
kertas
plas
##olusi
##imu
##utkan
fit
seja
kenal
##krip
mengungkapkan
lembut
shal
##tunjuk
kiri
ci
##ujudkan
##ahaman
##uasai
sengaja
##tober
city
##ikiran
prestasi
##dr
perilaku
##likasikan
##enaran
pemeriksaan
dibawa
##usun
era
bibir
menganggap
keberadaan
##onik
##be
mengec
pandangan
trik
seo
##artem
promosi
turut
tunggu
##yamanan
muhammad
honda
back
bahagi
telepon
bicara
suku
##elih
pemula
26
not
keren
##amakan
dprd
walau
objek
##ajuan
termurah
urusan
##set
berbentuk
##jur
negatif
berangkat
##intai
##ukuran
##oo
app
##obi
heh
##ingatkan
transport
##etes
##ade
dki
##amad
##ateg
##apus
sms
##ayaan
pertanian
parah
60
konv
menghar
meneg
stor
kreatif
disebutkan
bengk
budi
##adir
berkom
sepenuh
##20
dur
##mat
##ikirkan
pengusaha
oktober
akad
star
perhatikan
mengganggu
##anggih
##xy
lar
januari
penghargaan
##imak
teori
praktis
##ajaan
##tic
kaos
cok
cre
##udahan
##pu
keungg
sig
bac
petani
www
all
pemenang
##enggarakan
bertujuan
mengej
semb
rapat
lang
bawa
windows
dibuka
penerbangan
kalimat
ulama
##alanya
##artemen
##das
rekening
beserta
sens
##lat
len
bod
##epan
ori
memperl
sosok
##juh
##adapan
semarang
menginginkan
audi
cahaya
singap
penasaran
kepem
pasalnya
kasino
seringk
menghubungi
didapatkan
##masi
pedagang
##ikmat
##truksi
##anji
pendapatan
transfer
low
lepas
##tab
karen
seber
bahagia
sewa
val
diinginkan
cm
##umpang
seringkali
rangka
##antara
heran
dest
##dia
tantangan
##umkan
menyerang
membersihkan
##jabat
mengakibatkan
mengadakan
seiring
memperbaiki
##timbangkan
##88
melindungi
lancar
gas
bog
##uf
tang
##de
##put
##hion
mengus
##oris
sudut
pendukung
korup
dosen
pokok
##adiri
kemudahan
cabang
pegaw
##st
##emar
perjuangan
komb
##olaan
##ect
##ihatan
panduan
via
murid
pasaran
permintaan
menonton
##qu
peduli
vag
##iarkan
keindahan
##evisi
pinj
penghasilan
berin
et
mengund
lebar
##kuat
##ats
mengal
##emahan
kebers
sekitarnya
hos
##otong
angin
menekan
diikuti
dosa
transportasi
canggih
rasulullah
ketentuan
seputar
tombol
rahasia
##utrisi
permukaan
batik
##pot
makna
kampung
ditetapkan
pembeli
ditulis
##arikan
##okasi
lintas
mewah
##dayaan
pembah
global
sangg
##osa
def
kotak
instagram
postingan
##ial
kenyamanan
konsul
pid
##ny
##va
melip
server
latar
halus
##ancis
produsen
disampaikan
##itar
rangk
jerman
huru
november
ari
kup
mens
##uku
mempelajari
premi
gelar
##otan
lun
##bola
beban
##mm
kerajaan
menel
china
vo
pip
kebenaran
##ancang
baterai
april
didukung
tep
perform
simak
tulang
anim
adik
mohon
##illah
pemahaman
##ture
iya
destinasi
pernyataan
lemah
diad
##ora
slot
##dap
besi
paham
sid
keunggulan
pengelolaan
kerap
##urang
brand
horm
perhi
rob
qur
menolak
pencarian
pegawai
line
bakar
##isian
bogor
##ebak
menyiapkan
sore
saran
plus
bertar
graf
pihaknya
kucing
sumatera
##etan
berlebihan
##istik
huruf
kawan
##sen
##mp
disana
kitab
wajar
customer
sia
izin
fakul
##ahi
pag
efisi
menak
##uruhan
pangg
fin
referensi
pasir
##trol
##tember
##uaran
lapak
update
dipercaya
fakultas
##uasa
penyimp
service
aliran
perjudian
##ubang
##ibatkan
terlibat
untung
september
kesan
tangk
hidupnya
aut
ramai
potongan
dewan
##ach
##ucu
##uaskan
natur
##terian
29
hany
lip
kil
diperhatikan
gan
fashion
##atangan
##use
perso
pemasaran
karna
##guruan
##kin
memasang
betapa
medis
beri
pemberian
kud
karenanya
tertinggi
kementerian
##amilan
tepatnya
undangan
biru
pint
jabatan
inves
##ibur
##ero
ajang
##dai
##entikan
keseluruhan
memakan
31
ketidak
##embatan
##adar
bandara
seolah
##mer
persoalan
##itmen
tut
flash
dimas
kuliner
menilai
sepenuhnya
##umpulan
sport
imam
dimanfaatkan
##cana
putra
melah
##vasi
proper
pariwisata
##itanya
misi
##ith
##isahkan
##indak
sipilis
akr
seru
berpeng
ton
tutup
struktur
2010
sibuk
batang
##jata
artis
dat
senin
meliputi
menderita
ref
vol
domain
##ement
##ech
bayar
abad
##timewa
berkel
penyelengg
##pel
kirim
nak
##alin
198
peringkat
isu
##unikasi
suci
demok
krim
##inar
sn
##jen
##alik
##mar
##ahanan
##ling
jurusan
memesan
##uluh
##rahat
##yangkan
##anye
kamis
pejabat
perintah
ditentukan
2011
lemb
sisa
games
prop
lulus
kecantikan
nutrisi
babak
##ografi
dijalan
nark
jaman
televisi
merk
##enangan
##la
pemilu
dija
perlind
ratusan
##upan
material
puasa
diab
syari
##ambang
sejauh
##umur
wid
persyar
mengangkat
pasang
dides
serupa
akurat
relatif
##engarkan
##ebut
kaca
madrid
##word
jumat
pengan
alk
kis
mendek
marah
lantas
cak
berpengaruh
##oa
kombinasi
dipastikan
perlindungan
mempersiapkan
langit
point
power
memuaskan
kebaikan
perse
dong
2019
sys
cairan
##enuhi
sabtu
perguruan
kaw
edi
persyaratan
##batasan
strateg
##gb
enggak
kekalahan
puluhan
pembahasan
bri
##enting
div
##otik
penip
jaminan
internal
madu
event
kelapa
bekasi
lho
jembatan
ialah
masakan
melibatkan
##luan
harta
korupsi
nur
##kar
hanyalah
##bum
ala
perj
stadi
##hluk
menyak
keperluan
##12
pintar
pimpinan
mempertahankan
bbm
##udang
makhluk
keru
sekalipun
##endara
kewajib
##alia
##ty
tujuh
##afe
perbaikan
repub
fen
sosi
ramad
cerdas
yuk
mengerjakan
sop
pis
ekstr
terjun
sembuh
tidaklah
pesta
buatan
ep
pemikiran
##aa
menahan
muka
35
ceme
##adiran
jaj
perkara
sinar
mengakses
##buru
key
##zat
dihasilkan
analisis
persiapan
melahirkan
##of
system
##icu
plastik
kala
uji
##osisi
32
vis
tour
##atuan
ribuan
gro
sanggup
gelap
##ast
##utip
menyembuhkan
##adirkan
##uch
merawat
diterapkan
full
mobile
##ucapkan
az
80
##kirakan
perum
diabetes
##itter
xia
membel
berbuat
koleksi
rabu
##alang
##oss
menguasai
dikonsumsi
motif
youtu
dam
makanya
live
pinjaman
##tuhan
katakan
luk
##uncurkan
gaji
##akuan
aset
shalat
peg
harap
anc
##enalkan
merusak
fur
rusia
suam
kli
##angkal
##hamdul
sant
dikembangkan
pang
##rol
ren
memperc
kehadiran
tegas
mitra
mental
##elly
##eral
oh
mencetak
penja
kemajuan
memin
forum
##asta
##nif
##vari
melepas
##ologis
rev
tol
45
dimin
petunjuk
instal
##ance
##nu
motivasi
raj
##olat
bencana
identi
alhamdul
mun
##ez
##orial
hemat
pecinta
##amatkan
prim
##aporkan
nyeri
peneliti
##eum
aktifitas
penumpang
diaj
kosong
respon
##irmasi
buang
penggemar
hel
##umpul
##aluasi
swt
##jaya
##ey
berkat
kpu
jadikan
tubuhnya
kerugian
sapi
##sb
teratur
2009
perwak
##ior
reput
mengingatkan
semen
##etulan
##inisi
austr
##itek
tag
selasa
penyedia
memproduksi
kerjasama
lubang
##ajat
##engkapan
pentingnya
koper
##nah
tir
suhu
menempatkan
malu
pindah
##anyi
peroleh
gamat
kelah
##inkan
##inf
signif
padang
wad
agung
##inga
dibilang
surve
blu
direktur
sesi
##tera
##lahan
##anyol
##isinya
##imakasih
kunjungi
##omendasi
hindari
visi
gw
kesimp
jack
jujur
##fik
orangtua
berperan
menerus
##inja
memperk
36
##awar
golongan
kehamilan
papua
identitas
stabil
don
bettor
##ambarkan
mik
90
mengakui
##imbang
memikirkan
membunuh
gal
keberh
menengah
perwakilan
bau
isti
kebetulan
iphone
##ukses
niat
klien
united
papan
##timbangan
jaya
salam
jelly
##ich
max
paniti
administrasi
##umah
##day
jogja
solo
signifikan
##akaran
inovasi
mengajar
##entuh
##andai
##embun
keg
##ampi
digelar
drama
##ankan
##ron
iku
lapisan
minat
cream
palsu
panitia
##din
penawaran
pemakaian
jurn
kepadanya
strategis
uu
300
##anam
keju
##alog
gitu
##unggal
70
more
momen
interior
febr
nih
pertimbangan
jend
mengumpulkan
platform
ketat
jas
anj
##bl
##embalikan
make
cua
##ahu
##10
##wanya
kolom
plan
halal
format
kewajiban
sas
book
##ekali
dialami
khasiat
perlahan
kencing
akadem
opsi
ikuti
cac
bor
dikeluarkan
celana
kenaikan
han
mengelola
tarik
##gen
gadget
diadakan
dijelaskan
menceritakan
lowongan
roda
bersaing
##ise
beral
##awal
cew
menginap
setia
novel
mm
keker
##iliun
senjata
tipis
pass
rekomendasi
keterampilan
##oc
##adai
dri
teknis
tutur
penilai
mbak
mengan
singapura
kampanye
youtube
bukit
india
fenom
waktunya
mini
mainkan
##tein
republik
twitter
hiburan
##abel
vagina
##butor
sarapan
##nc
selaku
kag
butuhkan
##ahagi
penonton
##ataan
persa
##kand
spanyol
##bet
unggul
##ombang
berharga
kuning
simb
botol
pelajar
##umumkan
berpengalaman
gala
store
##ukah
mengirimkan
smk
##tren
tutorial
cuaca
properti
keempat
ibunya
terbentuk
tand
ganti
##adangan
usai
seberapa
elektronik
istimewa
kalinya
##erjakan
penu
kayak
##urn
gre
##aplikasikan
ital
##anjian
##elis
kakak
pengen
renang
mut
biji
##jang
pangan
bunda
rumahnya
tat
gizi
port
memegang
lam
matang
gab
##akkan
##ulusan
##anjung
##operasi
pantas
nar
wali
pering
##ene
final
sabar
hubungi
qu
kabel
jutaan
mendi
narkoba
jamur
februari
##anta
sand
performa
197
triliun
##isnis
malay
alhamdulillah
danau
jelasnya
ideal
xiaomi
spe
santai
sekel
menjamin
bersamaan
leh
militer
berdua
##ampur
keberhasilan
diskusi
jen
tumbuhan
##sus
cp
didik
prose
ajaran
lab
lant
fot
disertai
dirasakan
haji
##old
had
peringatan
##urahan
ant
##andingkan
##ost
##ompet
tren
sekret
det
##arahan
temannya
##laim
koneksi
sayuran
pendekatan
##adaran
tersenyum
cob
jati
silakan
binary
pembuat
diduga
ketur
##oda
pertar
arus
alum
##ihatkan
pembuk
penyimpanan
malaysia
kelahiran
furni
patut
sepakbola
medi
kadar
##olos
atap
kus
kelihatan
##gantikan
prot
diny
beredar
##ven
##entrasi
tunggal
bend
lucu
siapapun
antaranya
head
sambut
##gasi
shop
lidah
ayahnya
ong
menangis
prosedur
tertu
adi
multi
dol
tersangka
rad
meru
lomb
perencana
menjelang
terdaftar
kesep
##illa
beg
kesadaran
topik
##ler
perhitungan
kg
hard
##enter
aq
##elek
inform
##ii
setuju
ditutup
gon
penipuan
perjanjian
broker
##amah
memori
mendengarkan
kecel
##har
beruntung
massa
istr
terdengar
seleksi
italia
tampaknya
##gag
sesama
disesuaikan
sholat
meyak
menyesuaikan
##encanakan
196
hut
##indar
##30
swasta
cewek
##ahul
##inggalan
isra
konsisten
bil
puluh
##ld
##ras
##kes
hadits
bervari
lipat
##amar
##angkut
##ohan
pup
dinilai
##akup
##egr
hobi
dikunjungi
disarankan
##inci
##ock
investor
tarif
mena
terimakasih
##aktif
terlepas
##angkutan
lambat
menegaskan
campuran
sampaikan
##ginya
mula
nu
pembicara
pemasangan
kecewa
##ide
##cang
mendes
gimana
##eliti
bermin
##yukur
##oke
berpen
manch
berukuran
varian
australia
2008
iman
mencintai
harian
terpilih
simbol
##simpan
leher
##ematika
distributor
maha
perumahan
sinyal
##una
gudang
mengganti
mark
akal
##way
penilaian
##atangkan
koord
memasak
karir
kekuasaan
manajer
kecelakaan
adat
menetapkan
cina
sasaran
album
gur
musuh
##mudah
rasakan
gambaran
galaxy
ty
lelaki
ginj
##titusi
mengenakan
##odo
pesanan
kesimpulan
menggunakannya
##ulum
lombok
sekalian
##ign
##waktu
kepri
tk
vs
##ence
komitmen
rapi
yam
keba
##owo
penangan
##elahan
sesudah
taj
##ulah
terbang
terdekat
nusantara
mask
museum
kesukses
elemen
##ungkan
rangkaian
diminta
whats
berjuang
jej
rac
pengaturan
manchester
beasiswa
mengalahkan
bangga
bersyukur
##itor
memasukkan
##yakinan
bahaya
tangerang
besarnya
kebun
kebudayaan
194
warung
nen
menghadirkan
terbilang
##irik
ancaman
##udul
bertaruh
menyebar
end
terpenting
handphone
ginjal
over
ungkap
##press
##oman
##bing
##emu
##adu
kejah
bh
tujuannya
sentuhan
pilk
gb
alih
didalamnya
riset
pengurus
ucapan
dilanjutkan
bercerita
##truktur
support
inti
ilmi
ramadhan
perek
fes
terapi
tebal
##ulauan
menyambut
##ie
panggilan
temb
##akatan
option
polri
##lian
jin
##etakan
maya
##tin
terjamin
samb
##awesi
bawang
lunak
##olahan
dicari
##pro
kepulauan
mekan
senanti
berjudul
kesi
protein
##enger
##ogen
share
##anggar
tawaran
dibagi
sulawesi
konvensi
##ning
senantiasa
mengajukan
ukur
##land
kalimantan
binatang
##embuhan
##ado
##idan
jendela
comp
##unt
##umber
kedalam
optimal
##ancurkan
marketing
perencanaan
sedih
kejahatan
wis
brows
mencakup
rec
tercatat
kebersihan
##utihan
dirilis
liter
memeriksa
tersebar
didirikan
tergolong
angkatan
whatsapp
trend
timnas
##uasan
##tawa
keturunan
parkir
menular
##ume
##eck
delapan
aneka
group
word
keluarganya
##ekaan
##ikator
lezat
terti
adv
nampak
##ekar
pela
http
ahmad
layaknya
chip
keluhan
setahun
menangani
riau
memandang
mengonsumsi
memimpin
barcel
atlet
##iranya
berhati
diar
##jian
nikmat
boc
efisien
##fe
pengadilan
##tanya
iii
ilmiah
kristen
pengin
user
las
##ajikan
##zz
barcelona
telinga
miskin
terjaga
diselenggarakan
##assar
##eti
dikutip
toy
pond
##etakkan
##lemen
berkurang
kelurahan
menyeb
##ahasa
##pres
oke
bertindak
penerim
chat
##board
basah
menyajikan
meres
let
##kom
lelah
kpk
##ikinya
ic
##resiasi
kesuksesan
mengucapkan
panc
dewa
##pi
sri
keselamatan
diatur
tahapan
##antang
jepara
jus
intinya
##allah
##ontrol
##ulir
##ajian
diperkirakan
hakim
konflik
disajikan
matematika
##anjikan
semata
soalnya
akibatnya
polres
mengins
tom
pasukan
tanjung
wor
gempa
##esta
##araf
seminggu
##qq
##ony
abdul
pidana
surga
menyarankan
mengalir
master
##umpai
keputihan
mewujudkan
##opy
keman
150
fat
ran
##ayang
team
penutup
bersangkutan
upa
kian
kekayaan
keyakinan
stres
##ame
gemb
##umi
nasa
tabel
berdoa
makassar
time
suaminya
micros
pembul
penerimaan
hijab
pandang
##ubungkan
order
selera
dif
pemk
##emas
saatnya
lan
dinam
tangannya
99
mutu
##namen
my
terpisah
lebaran
anus
biarkan
hormon
pilkada
spesial
upacara
rahim
inspirasi
mempermudah
menyaksikan
##rak
kepuasan
radio
kandang
menyes
karang
far
##ikota
ced
persaingan
rus
disamping
loh
membiarkan
seminar
praktek
mengaw
lampung
yamaha
arsitek
sepuluh
munculnya
klasik
kenyataan
##otensi
fenomena
atm
pon
nanah
##anggaran
dinyatakan
operator
##ica
diluar
koperasi
##ancam
berdampak
laman
lantaran
##sea
membedakan
putus
ass
gua
fe
##erahan
##udukan
tal
rokok
israel
##antum
manual
cs
hatinya
cerah
offline
##erifikasi
menghitung
pembuluh
bumbu
##gar
gold
ragam
penanganan
banjar
##elihara
##sul
kuda
mr
tertutup
dal
##jukan
padat
kapol
mayoritas
kew
pensi
malas
eur
goreng
apple
##bankan
mode
satuan
##cc
sewaktu
diciptakan
box
##ider
memberitah
cit
tenda
menuntut
berkomunikasi
ditampilkan
coklat
by
sejenis
##ser
##ananya
##asah
bermacam
dolar
##trans
bersik
tindak
muk
mulia
perih
##indahkan
##ris
##gerakan
with
dibayar
dijalankan
membagikan
ros
##az
jumlahnya
##kota
impian
##sek
berhak
dilan
has
dirancang
##oth
elegan
kelemahan
kendala
gara
dikerjakan
variasi
pungk
reaksi
##andainya
cur
33
##iu
jawabannya
##ayangan
pungg
disukai
land
trader
profes
tump
quran
free
dengannya
kompleks
paru
hosting
walikota
tenggara
##oft
nenek
##iteria
ner
##ahnya
cpns
diproduksi
mengu
nonton
##dirinya
##iraan
toyota
##arch
lari
padanya
##ancur
liver
menghapus
we
##jolan
dikenakan
wat
dipenuhi
menangkap
##val
kotoran
kekerasan
##daftarkan
##ational
sofa
utamanya
##jir
sch
kepol
candi
seandainya
terkesan
kambing
bagaiman
##angkatan
##endam
hum
diakui
##lus
bent
law
pb
berga
##ustakaan
##janya
tali
kompetensi
##ebasan
tertulis
sebaik
ditempat
kontrol
penet
memec
cedera
##gin
##isar
cobalah
cc
membuang
bosan
saksi
garam
mag
je
rupanya
profil
roti
post
kum
jender
bayangkan
apartemen
warta
perh
diakses
lulusan
##kripsikan
karakteristik
dibeli
akrab
##ato
repot
ditun
pesat
mempertimbangkan
cow
furniture
long
logo
lolos
##ews
kurik
sari
##esh
##indu
char
##icarakan
instansi
inc
sent
##awi
adil
obyek
masukan
##bilitas
gram
##ng
kristus
kepolisian
kriteria
membandingkan
##jub
asy
cuci
konvensional
seakan
menyentuh
mengar
##amina
pengolahan
sipil
obatan
##linya
bahas
ste
##tifikat
intim
park
##awang
world
pengemb
murni
pengum
soci
laba
##ujian
karb
konstruksi
keah
##aksim
pns
##ongkok
tablet
##br
fase
jenderal
##ging
##atikan
kang
kemasan
##js
sediakan
dada
##ambu
siapkan
klin
temen
tahunan
##ood
col
pacar
##ikkan
mewak
rute
cetak
bandingkan
pencari
mengam
dengar
memanggil
player
bervariasi
##eet
membelinya
##endalikan
##sal
##jahter
jag
disek
one
bagikan
pep
penamb
pelanggaran
kepemimpinan
hukuman
sty
mud
alasannya
deal
hip
##etika
kedatangan
fa
ejak
##gantian
##ult
pendiri
belakangan
baku
qq
##pet
ramuan
bung
merugikan
mengajarkan
kit
diting
menanyakan
##alas
sayur
##by
##elan
busana
cir
mot
##if
design
perpustakaan
terbi
janji
batam
tetangga
##ometer
wadah
istirahat
##ambar
##indo
pengeluaran
2007
##nik
serba
indikator
##alisme
derajat
mencuri
ditandai
menyusun
senya
punggung
iv
tex
av
urutan
insya
arg
kurikulum
##onan
bob
menggambarkan
##les
bijak
terbar
praktik
firman
palembang
seragam
persis
mempercepat
rez
center
penginapan
skala
day
nikmati
ejakulasi
prioritas
mama
tuh
kacang
konser
tor
operasional
jitu
menyelamatkan
##tutan
person
##usif
tukang
##anjakan
##sc
2000
ucap
pelabuhan
ec
##zah
mere
serat
dipahami
##nia
ibnu
merubah
##son
mendekati
pengumuman
merekomendasikan
##ohonan
##omod
bibit
sor
terbiasa
tempatnya
usus
banjir
statis
perlengkapan
##ij
mall
dibaca
##egahan
mendatangkan
menolong
kegag
chel
kumpulan
tb
peta
akar
##eman
##inter
##tip
##wayat
##lon
tunai
salahnya
his
hd
bergantung
##ike
##sediaan
bentuknya
##ambatan
pemin
item
kurangnya
penjara
dak
ditambahkan
pinggi
run
kuota
##imbing
depok
##aat
test
senyum
dimensi
melatih
##tad
##ancing
putaran
memperlihatkan
##ze
instan
sekretaris
syah
jahat
kemerd
##km
##ekuensi
##eskan
kemana
berolah
tentara
ekor
sela
pengaw
menghargai
pengu
green
menghentikan
hun
##bukan
##agukan
mewakili
jeruk
pertahanan
dihar
##antap
depannya
hamba
lov
wawan
##tival
rent
##ering
##egara
semester
nasib
riwayat
joh
##umb
##yanya
konsentrasi
dibentuk
memperkuat
diminati
##oko
memicu
beralih
ky
##anjurkan
##ram
##kl
qnc
mengharapkan
##awanan
baja
kegagalan
pembentukan
demokrasi
istrinya
pengec
cowok
chelsea
password
kelak
jaket
##nanya
majalah
masker
beroperasi
card
##pool
dul
##onj
##asang
hr
festival
##arak
nafsu
dihadiri
reputasi
bea
melihatnya
berulang
hab
mengundang
diangkat
sebentar
##99
##lish
evaluasi
##lis
##kop
penamp
sertifikasi
sebutan
400
rupa
##gunaan
orig
ditanya
mengembalikan
bakat
##antau
buruh
pant
##oses
kebakaran
sekadar
##plin
melebih
pahl
##vitas
##ikal
work
profit
##anjutan
lemari
##ampaknya
sper
libur
beker
menghemat
buru
##bun
mengandalkan
nga
mendirikan
jaga
##bitkan
matanya
##badian
heheh
##rut
body
##he
diisi
zona
##wujud
##berry
menghancurkan
jl
raks
pom
pergerakan
betting
##arannya
sosialisasi
##ernya
train
##madi
banten
##osiasi
tuntutan
login
nt
impor
##iru
mineral
keahlian
senyawa
##pen
pesantren
gelombang
dilansir
baginya
benjolan
dijamin
antusi
cil
melengkapi
water
rajin
sidang
high
##ombongan
kemerdekaan
wall
##emudi
jil
volume
kosm
pake
skill
asus
34
limb
berkas
01
##cu
suz
yus
yun
wartawan
fam
##wat
joko
berencana
##ney
##atap
robot
kuno
fans
pengawasan
raksasa
bursa
pahlawan
agenda
kasar
yay
melaporkan
dideskripsikan
bertahun
##omodasi
##ternal
##aluan
sabun
##hu
tembak
pras
les
pisang
##sih
disiplin
fis
##entik
##dy
masak
kena
pembukaan
penulisan
pengembalian
terpaksa
bukankah
mengejar
##olehkan
pensiun
champi
##cal
##jana
buy
pagar
sebetul
dipimpin
dicapai
hehe
turnamen
##san
menunjukan
##80
send
janganlah
nada
ret
panggung
##ebalan
##anjur
kw
##ahagiaan
antusias
isinya
inj
ungkapnya
wifi
premium
bersikap
menunjang
sertifikat
kekasih
mencatat
but
sebetulnya
memperkenalkan
bertugas
tunj
##ies
led
lengan
setan
dipert
##lak
bangkit
##nes
##timbang
erat
alergi
pakar
kerana
ditinggal
definisi
type
##gia
pura
menangg
kursus
gelas
##tribusi
liar
dibahas
melanggar
rumit
##omosikan
kebahagiaan
75
kop
malaikat
kesejahter
nap
##oks
pencegahan
akuntansi
kesepakatan
mb
kantong
tajam
diingat
grafis
wajahnya
sensi
klasemen
##out
hah
berumur
##jawab
kesejahteraan
tekstur
mand
ditujukan
lurus
menempel
aroma
lim
##ily
single
aslinya
formal
tangkas
##vo
##ml
gerak
termin
dugaan
cd
##for
dikelola
dipasang
##21
produktif
##ominasi
##oner
andalan
ditunj
begini
memadai
bro
induk
anjing
diaw
manfaatnya
pasca
##versi
terhindar
rela
menyusui
cipta
besok
chan
usahakan
dilarang
ketak
gh
##tro
##esterol
bersab
kecerd
mendaftarkan
kunjung
priv
melebihi
kk
##yikan
berolahraga
kb
terhubung
modi
##elat
keberuntungan
##zen
maksudnya
dibu
asupan
##ucher
menand
demikianlah
pupuk
simple
analisa
##que
##alo
pameran
map
##aker
rs
dian
mudahan
kuasa
naskah
emp
perg
natural
rumus
eh
##lok
##akhiri
wawancara
ditemui
menyerahkan
pendahul
terkec
##bau
amal
##baru
dirumah
##ungkap
microsoft
##ink
##can
kn
##ektif
menemui
van
##uddin
voucher
tertawa
tiada
tiongkok
##egal
sap
susun
mengul
##tv
wawasan
melepaskan
dompet
mainan
##gug
##wakan
ij
arm
konsultasi
kudus
ganda
resolusi
keram
##fr
lainya
##erjaan
retur
jamb
terganggu
kara
##utnya
nil
bener
original
fer
##kandung
##ampingi
prancis
menakjub
tawarkan
##pit
penyelenggaraan
##atinya
##rika
liverpool
hadapan
best
terkej
mengumumkan
##ilitas
pembagian
cup
iq
mengeks
menjanjikan
survei
mengi
##ipat
dj
bk
##eber
berpendapat
ngga
merokok
rid
darat
menakjubkan
kolesterol
pm
produknya
penerapan
thail
moral
##ernaan
gai
sensasi
terbarunya
aksesoris
spesifik
misteri
berlibur
##ium
menjabat
teror
batuk
##eam
##emari
yayasan
thailand
ereksi
2006
##lasi
perekonom
logam
membah
mesir
##ding
syariah
menyerah
agan
wir
usd
pengganti
lambung
bekerjasama
menggantikan
##yataannya
qiu
beton
budget
blok
lis
seter
ceritanya
##oter
bpjs
bukal
infras
ts
gaj
##apaian
ketinggalan
abs
##pol
misal
kepribadian
limbah
instr
##ux
##ror
penerima
##ainan
##intahkan
perdana
setara
telkom
menuliskan
bukalapak
capsa
diajak
##waan
lamanya
##angsang
pencernaan
jalanan
##tensi
##uansa
37
beres
##oso
mengurus
ketemu
diperk
rp1
jackpot
##inggian
ml
gil
ketimbang
emang
booking
down
penyembuhan
pre
dealer
gagasan
konteks
##editasi
penya
##omotif
tool
##log
mencuci
pemegang
##eteksi
##angsing
kebebasan
berlari
dius
dirimu
senior
browser
##ungkus
teri
istana
pecah
##itr
##erat
fung
art
##empurn
##amankan
belas
laku
dh
membesar
planet
spek
asian
kencang
raga
ca
gila
semula
2004
variabel
perekonomian
##atanya
aktor
hai
merd
karet
mang
##idik
kecerdasan
perbandingan
stadium
list
250
comm
berfikir
ktp
##sm
berenang
##isir
##teran
##back
##bd
sastra
jama
##ibah
##roh
##pes
dev
##inder
penyebabnya
##arto
personal
##ontok
formulir
champions
##afat
jik
interaksi
##bud
disimpan
menutupi
berminat
##egas
mp3
ekspor
devel
ketinggian
pra
##osir
tam
##yakan
##aria
##odoh
relev
setting
kader
konfirmasi
cle
wujud
unggulan
bermas
pram
tuanya
label
menda
kompeti
cu
berawal
demam
pori
##emuk
spot
##unkan
damai
beran
berpotensi
nel
kurir
dekorasi
tahunnya
cafe
berak
ikatan
##tick
mendalam
##itab
##atori
##nai
tanam
pengelola
##ory
pingg
diganti
nis
rombongan
##atik
##getkan
##enda
pelan
milan
pertunj
syukur
##chi
##osan
berlatih
tenggoro
berkumpul
mematikan
registrasi
sifatnya
lak
berni
utang
penyanyi
seribu
infrastruktur
mengklaim
departemen
akademik
berkar
tambahkan
wordpress
bersedia
##presi
manado
sendirian
hidung
ditangani
gus
lal
pros
surya
##faatan
persero
sejati
kalori
##ative
##madiyah
fu
turki
prab
organik
##juk
waspada
membahayakan
terkejut
psikologi
dipengaruhi
batasan
##tle
resp
dibuk
suplemen
##dat
berlanjut
gul
##60
pek
ruk
eksternal
##gunya
club
##ilas
tolong
menggelar
tingginya
santri
ternama
anggap
mempers
##identifikasi
perancis
pertamb
memf
gat
home
kembang
##asio
##aritas
dgn
##antis
##infeksi
##inaan
##ley
patung
dewi
##sional
dihadapi
07
perihal
pedas
##iayaan
berniat
64
fungsinya
##urusan
ye
divisi
membagi
39
ekstra
berlalu
kehend
seterusnya
menyewa
sensor
jurnal
bimb
terlambat
ey
haram
pencipta
##net
##rop
pelajari
ditempatkan
##inasikan
tp
cam
penambahan
hidangan
verifikasi
55
kosmetik
sebabnya
dinikmati
berbahan
pusing
##ank
2005
##entangan
##jet
##obrol
cry
##engahan
panen
klaim
##iz
sr
mempromosikan
relevan
suar
pengamb
widodo
nikah
perman
menyal
bacaan
vital
jne
hem
##istensi
visual
pipa
##hh
mie
selamanya
38
##idasi
suzuki
ketakutan
lp
dianjurkan
##imbangan
secepat
rugi
printer
impl
mekanisme
##oid
check
##lakukan
menghadap
petern
stroke
kajian
tai
menghadiri
##aga
penyelenggara
09
populasi
kedok
saf
kedepan
mengusung
anime
##uth
ahok
imbang
##eling
truk
##older
##tujui
02
kong
##ander
##ungannya
pembu
tenggorokan
##∞∞
##opedia
pengambilan
lokasinya
berpr
ditangkap
angkat
durasi
sperma
engine
diman
##ape
yahudi
##yun
kemaluan
menjalin
sembilan
nasabah
oppo
search
diperb
##oney
pembicaraan
rental
##alap
win
citra
dusun
pondok
handal
cair
##onf
##onjol
bulat
##atorium
alumni
krisis
prabowo
meluncurkan
##gabungkan
usb
pandai
##sis
terinfeksi
##olis
tahukah
##ool
##ekatan
kenangan
ayo
dipandang
menghubungkan
memuat
kenyataannya
##ble
kekh
sempit
terkini
1000
peb
roma
disaat
hom
mund
core
##num
##xi
perkeb
majelis
mengatas
kaget
bendera
ratu
mengolah
kaf
mengecek
pelayan
##aksimalkan
berkons
menganalis
##indung
bukannya
##embunyi
apel
social
panel
tersisa
diund
gonore
tambang
mendownload
diraih
##eser
bra
##akapan
tuntas
##ote
##book
dicer
aktiv
letak
pakan
##ush
##usinya
##formasi
berganti
jualan
##olik
menatap
##emah
perayaan
clo
##wangi
600
segalanya
##cd
terminal
perbankan
pilihlah
primer
##emangat
##eld
masalahnya
diaplikasikan
##sin
alex
##shop
mikro
perkebunan
##alisasikan
berup
sandi
susunan
arsenal
jajaran
jikalau
maskapai
tabungan
open
sukar
siklus
skrip
manapun
komposisi
lini
##sion
bok
##under
##ject
##afsir
stok
##prov
renc
won
##ria
lump
pertengahan
##astis
##eluk
bpk
##play
berdarah
##king
##unculan
amin
##yong
get
##aper
ane
liat
alkitab
##mail
tangguh
deb
berhadapan
dika
##akwa
adu
stadion
baris
##rim
audio
iri
mengendalikan
modifikasi
##able
disem
4g
tempo
mengontrol
gir
rt
berupaya
indo
sdm
adam
##ella
##ohol
##nel
oknum
labor
##andu
##ehan
prosesor
menum
##ele
terbagi
##ensif
mengarah
harapkan
statistik
##pal
##25
debu
cash
manfaatkan
sajian
transp
diragukan
sex
meyakinkan
dosis
arena
saldo
dimasukkan
sepi
##kos
memelihara
adegan
##kripsi
mendatangi
templ
menggi
utuh
berbahasa
bumn
berpart
meman
##impah
mov
finan
pks
##alifikasi
##asila
##mo
soekar
simpan
akomodasi
nusa
bata
mendidik
kuk
sendirinya
permohonan
kerjanya
seksi
purw
perkiraan
##egrasi
doll
hancur
##11
afrika
berlokasi
saud
mendadak
leb
tembok
berjumlah
pengadaan
permanen
kilometer
sedem
##ole
penggunanya
racun
stress
janin
plakat
koordinasi
dibantu
jalannya
rib
intens
kerjakan
hutang
##bol
kesen
jul
##luas
##ancangan
pengend
merilis
##anjangan
##ativitas
solid
hiper
beper
acco
hehehe
cover
pancasila
berinter
menempati
sampe
nok
gabungan
potong
call
##acking
##titas
05
komodi
mengenali
diluncurkan
baks
porsi
##enak
cy
##ormati
##urit
pemanfaatan
ukm
pertaruhan
nafas
##reasi
menonjol
memaksa
bagaimanapun
anggur
padi
##so
dial
hasan
##upai
fantas
pew
##77
umroh
merata
hendaknya
lensa
bermu
ekstrak
berpartisipasi
##ke
kutu
sajikan
tepi
probl
tew
jema
bepergian
nature
memotong
##adan
perak
otomotif
##aca
hiv
kritik
org
##arjo
fc
campur
karpet
pinggir
sedemikian
pedoman
awet
spesies
ukurannya
##fah
acuan
terkandung
##sense
grand
##ewakan
kritis
sekiranya
muhammadiyah
gembira
romantis
eksim
perahu
ustad
finansial
##eki
pengembang
##base
kafe
sensitif
##olongan
kip
berse
berinteraksi
kisaran
##ujung
sarankan
sunnah
tokopedia
duit
dihitung
##emahkan
penyus
bandarq
ded
besaran
##unungan
memecahkan
##jaksana
kelima
##lic
sint
international
##ring
3d
ilmuwan
raf
##ids
##til
diolah
university
berjualan
diw
menyerap
##car
pangkal
pertunjukan
institusi
keluaran
##gm
otor
melarang
##io
membicarakan
note
sebulan
usi
show
olahan
##amanannya
195
heb
ternak
##ventu
##tn
traf
utk
apotik
imbuh
##ohong
dibiarkan
berkes
pendahuluan
hunian
65
bom
training
membayangkan
tertinggal
neraka
##ahap
merdeka
##ompat
produc
dipanggil
berkisar
##esa
masukkan
cv
timnya
menab
seimbang
penemuan
##cur
tambahnya
ever
dikasih
saudi
penjualnya
mundur
rentan
##ilingi
diubah
rilis
##ko
menempuh
aparat
animasi
kedokteran
melupakan
tiens
##ongkong
##optim
##epannya
pegunungan
##ito
hias
dz
tercinta
##ajang
ibukota
adsense
juventu
dibuktikan
menantang
##utamakan
hubung
manager
##mon
keuntungannya
epis
juventus
penetapan
mentah
##arinya
kokoh
cos
mendapatkannya
scre
praj
##edul
vend
eduk
##lar
penyebaran
dor
spiri
mengup
kesatuan
kontribusi
dibat
hero
entr
berbu
keta
##angku
beriman
konon
foll
##esis
##canya
##emput
nik
##sip
2003
ronal
pengakuan
##jat
menyangkut
semesta
natal
warnanya
##ancarkan
##enarkan
ditur
peranan
pir
beristi
arsitektur
pemainnya
mengejutkan
##itahuan
sawah
##ette
##bangan
44
gawang
sendi
presentasi
##aborasi
apresiasi
peradangan
semenjak
nilainya
lanjutan
gitar
##ping
menampung
pengantin
##dah
meminum
cokelat
virtual
terbit
karangan
menekankan
trip
bakso
budidaya
##astian
fah
fleksi
bambu
reli
enggan
menet
sony
03
pemberitahuan
rencananya
##osh
gajah
##ogram
grosir
diawali
sabung
##epend
lukisan
##work
bodoh
wahana
bima
bre
direkomendasikan
konveksi
rok
dituntut
keraj
kuan
hk
##otaan
formasi
##pn
##cm
distribusi
cinc
semi
42
##ingkah
dimakan
memaksimalkan
jatim
lirik
harusnya
bunuh
##yono
temui
##erg
denp
##ky
koran
lembar
membakar
penunj
kir
##arai
##isl
indeks
cip
disiapkan
diyak
zen
hongkong
xl
ekonomis
teliti
mam
jambi
bermasalah
king
##com
fri
laboratorium
##emuka
##hy
kurun
contin
john
##abatan
menggel
berlebih
prajurit
bareng
diajukan
sharing
##turkan
kapsul
membatasi
##otek
menyerupai
##spot
teras
keun
sukai
larangan
penguasa
angkutan
mengun
memperb
jilbab
sank
asap
##inggung
menyebarkan
kasur
keyboard
nyar
##cess
04
##uinya
balita
memul
##intas
##otivasi
ios
menanam
tewas
kreativitas
diajarkan
denpasar
peneg
diselesaikan
##adaannya
mengamati
kandi
bimbingan
euro
menyuruh
kerajinan
##aduan
ditingkat
mix
food
##uduki
kemisk
bua
##ipi
##ingnya
news
lg
48
spec
bernilai
bersemangat
membela
subur
pencapaian
##hat
dollar
independ
##adaban
##angkit
pdi
##ebel
vendor
dialog
bol
memak
zakat
dad
##ilannya
bid
temuan
banyu
mengukur
identik
lazim
##enan
mol
##agama
tuturnya
##emukakan
##ulangan
toh
diriku
blackberry
keringat
##tiga
##unggah
silam
bm
06
menelan
hadis
klinik
est
##als
cic
##garan
tumor
##elai
keterbatasan
keamanannya
kualitasnya
boy
hitungan
are
##atar
kabin
dicoba
lil
##osting
senilai
solusinya
sho
##ujuk
cemas
jagung
reading
##ongkar
kemiskinan
##ehkan
petual
mitos
menanggapi
menyelenggarakan
pungkasnya
##uhur
berta
mengancam
ms
cent
miliknya
##opsi
database
sesekali
menaruh
instalasi
haruslah
pemec
##uty
##anjak
disusun
##tive
hor
pembinaan
kronis
persep
merencanakan
##itannya
yusuf
terwujud
pengawas
##ensinya
tidaknya
meminim
##iker
43
baby
simpel
golkar
##ungkiri
sarjana
lapar
pembiayaan
pangeran
bujet
##eller
grafik
kedepannya
##akannya
cadangan
##ikmatan
800
memutar
##ikh
patah
serial
monitor
jelaskan
memohon
bulanan
pemak
mengarahkan
##diam
berpindah
hil
hawa
##sey
beristirahat
##alisir
dinamakan
kental
##ebon
cacat
kakek
berkali
sembar
pertambangan
herpes
nuansa
polit
##tika
keunikan
##fan
kenikmatan
lond
##ekor
chr
sayap
kualifikasi
##ektar
mengap
meg
sembarangan
berwisata
rock
ment
##otanya
stop
berangg
dibagikan
hadirnya
menghilang
hay
##onfirmasi
intel
##ukupi
pelap
honor
nokia
dirasa
##ekusi
revolusi
terlengkap
##rama
melangkah
nger
basi
##ormatan
rumput
ritual
umar
semest
rasio
hubungannya
langka
asyik
template
##asari
41
depresi
keadilan
diartikan
nelayan
##lang
jadilah
penjaga
ucapnya
lanjutnya
##entase
putr
sambung
skripsi
tentukan
dagang
sopan
##ovo
urat
sejah
##ilet
mudik
tercapai
bayangan
dibalik
buahan
##eat
##ru
mutlak
##wang
jago
trade
pembun
kandidat
ular
didesain
finish
imb
hambatan
##24
##grasi
account
kehar
mengacu
semestinya
##ox
memprediksi
##tions
wr
##agon
##obaan
berkendara
##tain
didasarkan
saraf
pemelih
tingkatan
speed
sejalan
sale
pesaing
##lay
pengisian
sut
jun
##ector
##ampa
tad
remp
##unculkan
tech
keag
imun
##ekah
mengaplikasikan
alangkah
jenjang
mengantisipasi
fotografi
studio
lot
makam
mt
boneka
perkataan
bersumber
##ric
memancing
kepemil
iso
seharga
berputar
yunani
##embunyikan
mulus
##ake
tepung
menyesal
pemprov
drs
puisi
od
singa
keliling
dimaksudkan
menghal
dakwah
terins
##tru
cincin
stream
s1
mail
sug
tersel
##itaan
peju
##roduksi
penyeles
jejak
psikologis
peradaban
iklim
meningkatnya
jadinya
emosional
usianya
bug
amanah
sekelompok
tempuh
memberitahu
lingkaran
buaya
menguji
##enam
flu
pered
penyer
kelem
berke
sunda
basis
sepakat
atasan
diturunkan
bertanding
merangk
##zal
kemampuannya
memat
terhitung
bersalah
##barkan
magn
sambutan
dibidang
instrumen
##atangani
sekilas
bios
ketu
mengakhiri
##ohid
##tisi
usahanya
london
menghibur
nampaknya
kesal
kesibukan
menembus
driver
beragama
hukumnya
spesialis
##urt
alaih
alur
kediri
membalas
##esuaian
hij
drop
soekarno
menginstal
garu
pok
berkh
umpan
tertera
##angkali
tiang
fed
##panjang
gand
kepadamu
##antumkan
##yanto
pemeliharaan
##tifkan
menghambat
##tungkan
pink
bantal
ditunjukkan
terkemuka
##fie
melekat
eksp
##aram
diatasi
ditim
nyawa
ongkir
pembunuhan
diyakini
pemkab
ikhl
merayakan
lips
pln
zai
bni
##injau
berw
mengag
rezeki
etika
inci
begitulah
##opuler
ilegal
kepalanya
##ety
berkarya
##saat
jamaah
##unch
menawan
didi
##ound
##ague
menumbuhkan
cirebon
##butan
disitu
##intanya
##sor
kebing
##angkitkan
sejuk
percakapan
##less
sejahtera
##atukan
menump
##bumi
menemani
mc
digemari
toilet
penangk
villa
kepemilikan
jk
sultan
hong
pokoknya
young
dijaga
kesayangan
kabarnya
mengabaikan
berbisnis
bedanya
##aturah
cik
mengor
terbakar
##acker
banyuwangi
##tak
ditung
pertarungan
46
##acamata
pikirkan
sawit
untungnya
hektar
merebut
asisten
##acu
##link
dibersihkan
komer
sanksi
##ript
beraneka
copy
ribet
ongkos
##istri
lemon
gug
palest
ss
berpuasa
intelek
impikan
persetujuan
tanyakan
dulunya
##entak
jodoh
##trak
batin
##lamasi
buta
membuatku
##kesmas
berkelanjutan
alis
edisi
bertentangan
tercipta
dikala
lenovo
##otis
kontraktor
##akna
demo
##draw
bertahap
##ohidrat
berjarak
ronaldo
terjebak
##iss
mengeluh
##ulia
##oi
reser
dibekali
bca
asma
professional
darurat
dilaporkan
##nn
##imen
pertamina
bunyi
kandung
sg
##ile
piring
sumur
sampel
##aksakan
sesaat
plu
david
ditinggalkan
dikh
style
html
##operasikan
##bulan
letaknya
mampir
##iness
warisan
kesab
indra
bambang
senam
awam
ditempuh
##inho
bersiap
##isal
asa
problem
##rikan
fan
##ere
dihindari
##esm
dipelajari
pekanbaru
##ukis
ketersediaan
belah
pbb
siswi
wujudkan
survey
mui
big
kebingungan
##ias
seekor
muslimah
47
episode
kontes
berdaya
haid
dipergunakan
sembari
##15
polos
##entina
flor
hu
efisiensi
sambutannya
laris
memain
persatuan
rektor
##ustrasi
bangku
pesona
120
diterbitkan
karbohidrat
##ange
ungkapan
filter
partisipasi
oly
keberangkatan
komik
jelek
bangkok
alkohol
pengamatan
##lum
roll
##usiaan
madura
betah
pembengk
pertamanya
jurnalis
persah
asalkan
##truasi
mencob
wahyu
sedap
mengira
menggabungkan
legal
1945
bawaan
rekor
kod
54
haf
udang
fisika
##empuran
persegi
kedudukan
##angkangan
dimanapun
pred
kelen
kehendak
ikhlas
rub
potensial
dilah
##kk
##we
##incian
mantap
perkaw
menuturkan
ekspresi
##ds
percobaan
bpom
##ublikasikan
2002
kentang
popul
kesenangan
seniman
continue
minimum
keseimbangan
edukasi
bapa
domes
ubah
##tauan
garuda
##aruan
##rian
nominal
konsultan
##wajibkan
good
bekal
hikm
nat
segmen
legend
pengendalian
bertempat
##ship
##isih
sendok
serangga
berprestasi
hiasan
tub
kegunaan
wed
palestina
##ipis
bebek
mencic
puskesmas
tend
49
kelenjar
sejenak
##adukan
nyaris
oksi
frekuensi
persahabatan
mengawasi
menghidup
turis
pengaj
tabung
dikau
##zh
league
amalan
##grade
insti
memukul
spir
xi
balai
seumur
dual
timbulnya
paris
##aparkan
olymp
nyatanya
rebus
menjadikannya
##iny
zaitun
celah
##rahim
siaran
##kas
##emia
diobati
##13
datar
mump
dipungkiri
naga
rotan
berter
##mah
##bn
##oord
menduduki
maria
##onc
yud
otoritas
##zinkan
pengerjaan
##ementasi
##hasil
boot
coll
menstruasi
kemas
maksimum
maluku
##000
##my
bacc
tanggapan
isl
trop
##amuk
rutinitas
##sil
penan
##egoro
arif
neti
prima
lek
barangkali
pidato
##dk
filip
airnya
hadapi
ster
tingkah
memindahkan
bap
lee
serang
##win
ditingkatkan
##acak
buyer
atasnya
komersial
##klusif
##ipang
##pli
meriah
sejatinya
mengatasinya
spiritual
##amaian
##graf
logika
baccarat
##kala
mendapati
bermakna
dimilikinya
dapet
gap
berbun
refer
kesabaran
iblis
angel
pembengkakan
##alib
##ribusi
kubu
##ahabat
##hari
page
diand
sebatas
relawan
mengerikan
ngom
gairah
##ehat
hmm
berkah
##angganan
ring
project
pembantu
mustah
memainkannya
##vestasi
ketahanan
formula
manag
memperluas
palu
gay
adap
lutut
deskripsi
misalkan
dominan
anal
##temukan
##omunikasi
##okerto
kacamata
memantau
dilepas
dilakukannya
york
kah
##osal
sob
hitung
alm
gerbang
tokyo
##ster
pompa
1999
adonan
texas
madrasah
##udin
pelindung
persepsi
dsb
##teng
memeluk
terdakwa
##onic
meletakkan
penggunaannya
##oki
streaming
diserahkan
terapkan
tongk
juru
makalah
mengunduh
reformasi
dibagian
ditunggu
jahe
##ading
yoga
kejuaraan
##cus
pertolongan
##ford
tap
diperbolehkan
histor
kemanusiaan
sambal
privasi
##its
step
disep
##iting
tonton
berjanji
kerag
selangkangan
start
gener
terpenuhi
teripang
##ekutif
pelangsing
##olakan
print
##edo
##fum
payung
mengantarkan
dinamis
pendidik
oil
##masin
kompetitif
humas
##landia
mengidentifikasi
shi
polda
deng
inisi
pekerjaannya
hida
harm
rempah
netizen
vel
ganj
##daan
##box
rekaman
injil
fantastis
enter
perkawinan
tafsir
##qah
komoditas
workshop
52
##dim
penghuni
##gres
series
##ulator
##ogo
##ct
topi
suriah
##enteng
wahai
##ery
disekitar
hir
famili
telkomsel
biro
ven
view
konferensi
##gerakkan
happ
drive
88
bengkak
##umentasi
banjarmasin
norma
posisinya
opini
##emasan
disambut
bobot
##teriak
metab
bercinta
muj
eksekutif
membeb
terkecuali
alas
##biotik
##venir
##elit
##awatirkan
qs
##zan
bengkel
berakibat
mawar
menjelaj
##ruk
##las
kompas
##ahit
hair
diperiksa
ego
tugasnya
abadi
jantan
hold
jamu
berteriak
##37
tergabung
##ection
pelanggannya
85
fiber
menebak
nag
bukunya
brasil
dalil
anggotanya
balapan
##oka
diandalkan
menguatkan
mengamankan
seluas
pujian
##rof
rahmat
chi
##mur
##asuh
mencukupi
##agen
radang
diproses
##esona
ditolak
pisau
##bag
ngobrol
mangg
mendasar
iran
jalankan
penyelesaian
miss
##emon
ditarik
beta
reproduksi
terakhirnya
##misi
kakinya
premier
##eting
koordin
##ecil
##luk
1998
fair
belahan
##endang
##ax
kekebalan
desainer
dilew
mendesak
penyusunan
peminat
install
berser
lingkup
##door
##asilitasi
##adari
hahaha
berinvestasi
##utang
##pah
##injam
mulailah
linux
komplit
##ebatan
kiat
##pura
house
asosiasi
pemberi
##otkan
ingatan
channel
menunjuk
regulasi
##onegoro
offic
pertempuran
love
memunculkan
##bs
ruj
barulah
sisanya
dilahirkan
##eni
beribadah
menyakit
##etis
##zo
lumpur
perab
reputasinya
spons
meyakini
nol
##allahu
##dad
menimpa
los
terbanyak
72
berkap
mba
hang
vaks
alaihi
rohani
bermula
detailnya
past
fitri
diperbaiki
metro
##orangan
ijin
dikab
moh
pebisnis
permen
##awatiran
pengl
kelainan
dani
memisahkan
diungkapkan
muti
##ombinasikan
error
kejutan
2001
periksa
gerai
##etahuinya
phot
agresi
muntah
##enggam
apk
mengol
pramuka
ikon
business
antioks
musa
mataram
menghormati
##usuri
mencobanya
lisensi
##ingati
legisl
bersantai
url
benteng
cuc
ih
kredi
handuk
ikutan
network
seketika
keluarkan
coun
faktanya
kafir
andi
##plorasi
menyebutnya
dicampur
##etron
##ario
mustahil
##epr
##uble
##iliasi
kabur
ray
bertarung
menggali
##itraan
penyi
berbau
direktor
tersembunyi
komplikasi
##oster
menaikkan
##cap
tante
bertum
pembalap
kondisinya
##ikasikan
##dayakan
mebel
ditar
rab
visa
minus
dpd
musisi
pengujian
kema
life
kalender
menenangkan
##ebus
petir
petualangan
##tusan
##optimalkan
awan
diumumkan
menandakan
pemad
office
##ebo
ui
domestik
viet
beauty
##36
parfum
sif
upah
oksigen
pengikut
##utrad
upload
pahala
royal
akhirat
mk
pdf
##sy
seluruhnya
ulas
balap
fork
gemuk
##akunya
pengendara
medali
##ido
ngomong
bintik
serviks
pengajaran
developer
kaitannya
##istan
##mark
perlakuan
job
##enta
##hitungkan
##adaptasi
##angkir
spa
sou
pangk
menju
redmi
tix
##ajin
##uto
ayu
##efinisi
bahw
berkapasitas
tebing
domba
56
zi
datangnya
serangk
memerintahkan
gig
oli
dv
pabrikan
kapten
cand
messi
ditengah
ajak
tagihan
bara
tadinya
sesuaikan
mereferensi
dilalui
ngeb
menged
roul
menyingk
subjek
dikabarkan
yu
independen
direncanakan
aff
saking
##rom
pembersih
tercantum
pahami
soo
sit
kekhawatiran
bertek
human
mual
pasangannya
sales
##isahan
resort
##ency
##pad
kebersamaan
idul
komand
stat
teroris
telapak
rantai
tulus
caba
dorongan
purn
merangsang
##vis
59
perikan
##uncur
pelih
tautan
antioksidan
kub
root
menyusul
bersihkan
memasarkan
filipina
terangnya
respond
care
peredaran
##elam
propolis
sebutkan
pemiliknya
integr
melu
##40
bakalan
perolehan
control
dirawat
pengk
##ukiman
##atuhkan
diakibatkan
gy
penarikan
##dih
musibah
mengkh
withdraw
regi
selfie
makeup
##kulasi
cermat
##eransi
51
pemr
##enalan
pedang
helm
perikanan
##atuh
bahu
mengharuskan
pemul
##inda
bengkulu
durian
banda
dikemas
yaa
##ohkan
bund
betina
teng
transparan
##engsi
polsek
ase
hantu
darinya
##banyak
diken
basket
markas
##aparan
lup
mengecewakan
kemih
##puk
rancangan
cons
teringat
ibrahim
##ader
trump
baiklah
##timasi
ditunjuk
##asaannya
memperbesar
##ean
##33
##elidikan
menyala
##tore
##antah
##sidi
membuktikannya
any
##jemahkan
disimp
melarikan
memanjakan
daft
##ure
pembesar
##urian
menerangkan
##cl
koin
900
##inah
bubuk
diprediksi
hindu
noda
jung
##enuhan
desk
penyelidikan
pendamping
kuh
sinetron
sido
##esaan
usul
membikin
terob
arsip
##ahulu
music
implementasi
jersey
leluasa
##22
##otret
bersep
radikal
malahan
click
kayaknya
pik
95
klo
skema
rincian
##uguhkan
##arm
nulis
dang
sekeliling
popularitas
pemberdayaan
menyembunyikan
host
papa
##news
menyeluruh
produktivitas
way
badannya
dipersiapkan
cabai
pung
dec
##evaluasi
ges
##uruan
auto
au
wira
intelektual
##aslu
hen
iritasi
penjudi
bt
kendati
tawar
pesisir
koloni
57
##anamkan
rekomendasikan
##ayangkan
daftarkan
menariknya
sky
blue
##esaran
##bert
babi
membangkitkan
selisih
kemah
dipisahkan
privat
rentang
rontok
##nnya
pahit
##esitas
duta
kemauan
sate
##ultasi
##entum
sarang
tinggalkan
##eto
pengukuran
well
##juangkan
inov
##pektif
fleksibel
penangg
kerangka
silaturah
tomat
hua
antri
dikaitkan
##ese
melint
buatlah
gede
menyakitkan
##apannya
ucapkan
religi
menyis
dikur
ranjang
##16
outdoor
bersahabat
optimis
fresh
landasan
##nologi
php
kesu
##lima
kiamat
taktik
terendah
##andar
partner
##ister
masuknya
keagamaan
mengutamakan
serangkaian
menunda
cut
ditak
lanjutkan
##market
putusan
asumsi
##ondong
diare
##poker
blogspot
##bawa
prosesnya
##olok
##iasi
kemac
atr
kelengkapan
mim
##organ
ibarat
##yam
##ming
##ampau
wangi
hs
usulan
product
fils
pengajar
kemeja
kelelahan
merekam
##rus
speaker
jemaat
pasokan
mencium
alf
memprak
persentase
##bai
latin
kuku
friend
demokrat
##efinisikan
##ombong
vietnam
##abisan
mereferensikannya
perairan
##integrasi
##ugerah
md
##entasikan
##usikan
astr
penampilannya
proposal
##ulin
benang
##sium
kebangga
pertanda
##vin
action
##els
bening
lic
inflasi
penal
bermutu
mahasis
##syat
##uy
##our
hpv
ditum
intensitas
##intis
bersabda
gamis
##tps
taksi
##mani
pergantian
mood
argentina
dihadap
kerabat
bermunculan
indikasi
##fungsi
##alth
cerpen
lembab
roulette
portu
pejuang
nex
##lift
agr
ntb
##ernih
tul
lion
setelahnya
menyimpulkan
jose
melemp
merujuk
beraktivitas
rindu
##buruk
##anyikan
rit
adakah
##anggakan
ace
eksklusif
##embah
##dan
pasta
follow
metabol
paha
bioskop
dukung
kemacetan
macet
jejaring
alun
kamus
bromo
mutiara
ال
lega
snap
##anch
##tukar
responden
folder
orgas
instruksi
nir
lengkapnya
gemar
kuman
kewenangan
disadari
teluk
fund
mengulas
seharian
##embahkan
obesitas
dikuasai
gang
portal
halo
katolik
tbk
##mana
bersatu
##sp
rw
hikmah
aduk
kaku
scan
jenuh
kapanpun
revisi
##agn
singk
tikus
tenggelam
arahan
panik
##ating
mera
menjangkau
kai
gaming
##merce
double
dikembalikan
##ograman
terluka
kesana
##ath
umkm
penglihatan
##perimen
terpasang
rumahan
##mati
mempercaya
pinggang
valid
secepatnya
disimpulkan
amaz
lautan
##iban
ramalan
bulannya
ungu
seku
##zer
mudahnya
modul
bijaksana
alhasil
##wei
66
imbuhnya
##vas
##55
##akati
##imbau
abang
##amer
beranggapan
##ampingan
membawanya
persatu
editor
##mun
dipotong
53
##obo
terbangun
##elapan
teguh
apbd
kehidupannya
stamina
insiden
##untuk
berkonsultasi
award
perbatasan
##bara
diperkenalkan
kepastian
islami
tra
akhl
oc
under
pacaran
singapore
##inang
wallp
##dam
testim
sign
bangka
sumpah
ly
##wu
##rb
ash
antibiotik
mewar
##enap
700
https
##enci
block
momentum
dijumpai
didampingi
supportnya
berkembangnya
sopir
mega
##terior
pic
##awa
ustadz
asean
filsafat
trus
souvenir
kapolres
penjuru
poly
jaw
pn
sandal
nyamuk
crus
##dang
partisi
sku
##eth
tegasnya
keyword
perf
mengetahuinya
tarian
input
kesenian
selang
nia
##usahan
kontra
tukar
hatta
anies
this
jernih
##indra
dikirimkan
membacanya
##ingankan
tin
payah
belgia
penjelas
larut
kreasi
edit
##imanya
##tipan
ria
relasi
dibatasi
rew
forklift
##edulian
berminyak
ambon
penyal
bergaya
##dut
menara
##hot
aspirasi
kelola
happy
tersimpan
kembar
##aton
mengga
sind
##ground
sarung
obser
ija
##arap
berst
berkep
micro
##uhannya
##str
pg
##via
##bit
sains
metabolisme
maag
padaku
pemda
##ayar
hyun
dahsyat
tiong
menyangka
seluler
oleskan
##umbuh
mbah
orangnya
terikat
ping
rans
penangkapan
##ology
white
isteri
legenda
ditanam
##minkan
disuruh
nomer
seger
beranjak
##endaki
panglima
##ontak
##urug
##burkan
perga
terinspirasi
##ampaui
kios
kehormatan
song
kebanggaan
##wood
guys
##aksaan
wisuda
sq
berbayar
peternakan
naj
realitas
public
##lai
menginspirasi
##ous
##pd
berisiko
bubur
muatan
shah
mess
moment
yohan
terduga
##osankan
1990
penghasil
##empurnaan
mumpuni
nota
cermin
scr
##siapa
tama
mour
##egangan
##ukulan
##etas
mencicipi
##embak
##dw
fraksi
##ihak
menginjak
didominasi
hob
penanaman
membosankan
##ailah
meneruskan
fatal
phil
sidoarjo
##read
semalam
management
perawat
##orter
##wayatkan
rekreasi
sifilis
wac
cook
##jok
berkhasiat
fut
tegal
mons
melayu
penun
perund
kista
##endi
lamaran
gm
##akti
penerbit
pengemudi
persib
sepasang
merep
##70
vivo
ingatlah
siti
dicatat
##alisi
keberanian
tribun
##endarai
##idul
mendesain
barangsiapa
##jarah
bertrans
##isnya
gaun
lte
##ija
mengaktifkan
##impun
disin
dipertimbangkan
pencurian
hus
##opang
rud
##eme
##uncuran
karawang
menakutkan
kecender
penga
banding
menyalurkan
##sos
##etus
ai
mourinho
maklum
jember
shall
terjatuh
pembakaran
sablon
tro
insan
prospek
legislatif
aids
keser
dibuang
meringankan
intr
keberadaannya
boom
adiknya
hipertensi
##yai
apik
berjalannya
penyesuaian
tertidur
kehabisan
##aju
manuf
hakikat
gps
kagum
##abil
segenap
terbeb
menargetkan
kesem
cctv
mg
eff
ditekan
##rong
politisi
crusher
terserang
renovasi
wew
milyar
menggoda
room
goa
rinci
diagn
##alangan
paul
jab
your
curug
curi
rong
##asarana
traveling
kepedulian
siapakah
atl
kulkas
pud
inn
bocoran
ketiak
perpaduan
rujukan
##eritanya
73
hajar
##asiatnya
ikh
##cs
valu
tampilkan
##ektor
##eneur
menduga
if
mendeteksi
berkala
penyedi
##ahaja
dipl
hama
mengawali
kart
##inian
asalnya
wallpaper
peninggalan
suaranya
terbaiknya
##du
berjudi
dieks
ril
mayat
stock
kiranya
nuk
kekel
dibel
ais
##ajukan
found
bros
dimasak
prasarana
duka
shir
lengk
##ye
haha
berkeliling
pengenalan
keluarnya
andre
ideologi
mencerminkan
capek
benua
indahnya
penguatan
karyanya
menggun
##zza
##par
terpengaruh
camat
akreditasi
barunya
58
tercepat
standard
budd
marta
esok
berkomitmen
pack
ngan
dilap
tandasnya
anggapan
kay
administr
##tag
##urai
sai
ditimbulkan
gres
buil
dadu
output
##engerti
propinsi
##tianak
##ikum
##angannya
bs
paparan
kedalaman
pendarahan
armada
permainannya
##umuskan
satelit
##jal
backlink
telpon
merancang
asn
fk
parpol
##amannya
school
##lokir
imi
fungsional
abdullah
s2
##omas
caleg
upgrade
bersejarah
genre
tsb
angkasa
##eno
dress
berkec
audit
##23
transmisi
fem
takdir
semisal
konsekuensi
berujung
dicetak
##amal
hardware
diklaim
bisnisnya
hin
road
bersabar
orgasme
ilustrasi
bill
desainnya
##tuanya
menggambar
options
kebugaran
figur
luang
menyalahkan
kontras
##elanjaan
selagi
mulanya
menabung
krist
image
penderitaan
sentral
persediaan
berant
sponsor
muslimin
mengusir
diarahkan
integritas
aktivis
##odifikasi
wc
gmail
penempatan
personel
money
kees
lob
karbon
125
butir
##ited
kecenderungan
seder
##ogp
bersel
##alukan
cintai
##buan
##ks
##yit
miring
testimoni
yan
pemrograman
terper
memuji
##amai
mencinta
mencarinya
##emukan
terorisme
kupon
##ou
##anderol
mangga
##alinan
##rit
west
prodi
##hoa
atri
membenarkan
##alaminya
dimengerti
pendirian
##ness
dipasarkan
kulitnya
mengoptimalkan
bilangan
pengajuan
memilikinya
ceo
##onomi
kri
menumpuk
santun
sepatutnya
kamarnya
batuan
taat
melewatkan
##disk
berkesan
metal
motogp
stim
garut
woo
dvd
ratus
memberitahukan
##alar
unduh
pontianak
biner
perkembangannya
##git
##jakarta
eun
sound
penentuan
tit
penyediaan
##angsungan
rasional
protes
familiar
berdekatan
trag
rawan
vok
factor
jarum
frame
obr
birok
ditahan
mengantar
nge
pembuka
lit
tud
##yasa
kelinci
##48
seju
terjemahan
digambarkan
perkotaan
telat
jenisnya
ds
perspektif
##atika
kepadaku
##mptn
dibedakan
rint
kecilnya
persamaan
peluncuran
soeh
bangs
etnis
mengungkap
sesak
pelamar
pemulihan
persalinan
##busikan
param
ugm
memotivasi
pengamanan
kebumen
akum
##hip
menuai
futsal
##ature
diuji
asik
subhan
##fone
mengikat
light
lcd
khasiatnya
meren
semudah
keliru
aplik
moder
kondom
tegak
##antar
berfoto
mendaki
week
penyerang
##ilm
berkont
juri
itupun
liv
penguasaan
personil
drastis
##edisi
##zar
##impunan
kesedi
kunc
##abut
##ungut
dibeb
beradaptasi
##18
untuknya
##apasan
##anduan
terkend
bertu
menghidupkan
kiai
monster
penolakan
pergaulan
##uke
##osistem
sok
mendekat
kebangk
cuman
yohanes
desktop
kebaya
pertuk
##28
##anjuti
wow
berdasar
bagai
agresif
mouse
keberatan
##zil
putar
##17
phone
menanggung
semasa
##zu
jangkauan
##bp
##cover
penjelasannya
diminum
ketenangan
##taf
##aktur
cengk
##over
##figur
diga
elektrik
nun
kompr
diukur
membat
##usat
menghalangi
tayang
keas
urut
perhiasan
67
ekstrim
mid
derita
wacana
asri
melimpah
##plier
akbar
tong
##irannya
lest
##akarta
tionghoa
##ukainya
process
mengas
##ihi
memaparkan
inovatif
resm
pilar
merespon
huawei
##umpa
secukup
fb
refl
gerindra
sadari
obrolan
##jk
gini
terintegrasi
diseb
simulasi
kawat
membaik
teratas
gugur
hulu
sepele
##pay
pemkot
##fic
karier
##chen
bermaksud
acak
##tt
##cy
responsi
setinggi
elec
melampaui
jalani
mos
alq
##edak
napas
balasan
puc
kesukaan
##taan
menyimak
menganalisis
pix
kolaborasi
nk
berburu
coff
supermarket
##iayai
menetap
pembuatannya
secukupnya
tinta
deras
madi
##ray
esensi
kado
cend
hatiku
kanak
##yaratkan
##ukau
dhar
##aph
gelandang
mahk
melompat
ekosistem
kurus
tertib
##yarat
class
computer
hm
##urasi
balas
ombak
daratan
merapi
paruh
mengangg
bersepeda
rol
##kw
anugerah
berbuka
bedak
reguler
diletakkan
##ful
memperkirakan
##kus
vaksin
subs
##onesia
batubara
vagin
disetujui
##turut
pertanyaannya
##isap
##angsungkan
##aaf
mung
dipublikasikan
##umsinya
tinja
pelengkap
perseroan
luc
mengikut
diceritakan
##aft
cucu
realis
perw
stan
pembuangan
wayang
menjatuhkan
disfungsi
viral
##pp
##gma
fad
##update
berkontribusi
joker
##kuit
skuad
##cer
##ale
##tukan
jemp
penul
##19
menyatu
##badikan
habib
him
##gantungan
berker
##enaan
##areng
konsol
excel
kedai
mancan
screen
pilpres
serentak
gelang
##idge
exper
syair
taiwan
tunjangan
aqi
like
singg
memajukan
segan
benak
vic
modem
keseharian
hoax
menanti
text
kerip
umrah
paulus
##abatnya
provider
paras
telek
sti
touch
keesokan
sehubungan
mendominasi
aura
kuningan
balon
memperpanjang
##antasan
konstitusi
cloud
bermimpi
soeharto
surakarta
##ahat
dekade
official
teruji
menentang
disembuhkan
raih
##alamannya
tembus
menggug
skin
syd
riz
ub
karunia
69
mancanegara
##ulannya
##gam
dibanderol
slim
##imi
aduan
ilm
terburu
##∞∞∞∞
penunjang
##tico
##sak
yat
##enario
##ografis
diur
didepan
diusung
shar
syaikh
fast
##dium
##ss
terancam
plugin
##transfer
penerangan
sedikitnya
##uaan
shallallahu
##daul
mengutip
##itch
hilangnya
ringk
##baya
wiki
##libatan
ormas
peninggi
qual
kasihan
tempe
1997
zenfone
wol
cep
menyingkirkan
serum
misterius
pedesaan
mengetik
reseller
lilin
##ahannya
##des
memfasilitasi
tropis
##uck
pertimbangkan
supplier
lagunya
uraian
koalisi
penutupan
##ilasi
barisan
universal
##amana
yup
bensin
menyertakan
sampingan
pipi
pilot
##wijaya
mart
guar
staff
diharuskan
bia
sumbangan
##oreng
yer
jumpa
fun
ataukah
perlawanan
##irman
sekunder
dangdut
alokasi
kawah
shamp
raw
uangnya
syam
beresiko
mangk
esq
kuantitas
bocor
pertukaran
code
idaman
yahoo
berdisk
abal
##dirian
paparnya
color
alg
mind
komedo
##kg
didunia
memikat
keterlibatan
denda
rm
dendam
gurih
commerce
dy
melancarkan
sangka
singkatan
mestinya
percepatan
##45
##anaan
pengecekan
nipis
kanada
perlomba
startup
##ilat
hormat
dipaksa
mab
cli
##oy
harapannya
hol
ujungnya
regional
kunyit
jaring
##utaran
atle
##wo
boj
oral
holl
diti
menyeg
netral
##uliaan
akut
seratus
##lock
kipas
tawa
nab
daud
muara
##alem
tekad
penyidik
tahanan
salep
##tris
##empurnakan
kro
##ampil
##ariat
pala
kekinian
terobosan
##entif
publikasi
##act
berkomentar
##rok
stain
blogging
meminimalisir
pdip
bagiku
tembakan
tsun
berdiskusi
mahkamah
cacing
paytren
##jack
diwajibkan
jabar
penataan
pengangg
perlukan
drum
sof
##van
indos
diucapkan
dwi
membatalkan
##ografer
tongkat
fos
catering
keramik
jumpai
dikumpulkan
menjauh
kartun
temper
bela
taw
##ajinasi
##utri
ceria
telanjang
profesor
ladang
dihubungi
dihargai
penghi
menyetujui
perlombaan
mempercayai
berkesempatan
memory
wash
katalog
saus
dihapus
pemenuhan
##apres
memasukan
gard
kreatifitas
##tih
membesarkan
berkuasa
seleb
silaturahmi
tetaplah
komite
bias
sebenernya
##barui
samud
rambutnya
agent
sumut
teater
pendeta
membuatmu
kendali
dipesan
eko
sby
kesamaan
kuil
galau
##ikapi
madiun
ajaib
pengumpulan
mendampingi
seny
##hen
wort
perda
berja
##qi
berfokus
68
notebook
ntt
menerbitkan
porno
76
zul
pernahkah
##usul
##indarkan
belitung
wang
gran
subuh
emak
tanganku
jim
##stal
sutrad
sman
kalsium
##indukan
laser
##aro
andr
lambang
java
kirimkan
medium
##akaian
sakti
##iklan
kiper
melaju
tdk
distro
##xx
kapas
paragraf
abd
pewar
##papan
##otongan
dipers
gra
orde
berjenis
tayangan
180
##emaran
3g
nasihat
che
nor
lec
##che
photo
mush
ditanyakan
lamb
##isili
melap
##rib
atom
disepakati
dipegang
james
##ibli
##itahu
##irus
##awati
popular
olimp
bercak
penyerahan
hasrat
##alamu
penyamp
78
pengab
reservasi
berturut
add
feb
diameter
kecanduan
lib
anggr
##uliahan
ampun
liber
doc
mulutnya
tersi
##imbangi
##ampiri
kekec
buahnya
sirkulasi
##ditas
aqiqah
carilah
##taka
bersinar
kuta
pengantar
bant
kemitraan
empuk
apar
display
kupang
ledakan
pukulan
heboh
tools
membuahkan
atletico
aki
lihatlah
ketergantungan
blueto
iseng
balikpapan
pemberantasan
pijat
##arning
sallam
benih
sinilah
pemanasan
terdahulu
bagaikan
##gic
membuatkan
reb
##aren
ijazah
cuti
##iringi
jae
energ
mengenalkan
##oordinasi
abi
khali
rich
cabe
bayaran
berny
98
parlemen
##hana
##awai
mempertemukan
dibicarakan
##jan
dikurangi
que
##elin
mengemukakan
mengulang
bluetooth
icon
##ilo
commun
memutih
##oterapi
kuala
polusi
kesembuhan
asm
meniru
##orikan
laju
eksistensi
estimasi
##gala
##ehatkan
digantikan
memengaruhi
mendo
didorong
##yani
cross
bedah
62
sombong
##uarga
telekomunikasi
##cakan
kapit
record
dipec
kiu
##yyah
south
berlomba
tendangan
fik
##entifikasi
tatkala
meminjam
##lir
sos
memperlakukan
##tigasi
bahannya
menata
terlupakan
##con
##ego
dataran
health
63
selepas
pembaruan
tsunami
menuk
gresik
cop
melacak
menurutku
pulih
harmonis
asuhan
keis
pengungsi
penel
atmos
bertransaksi
keharusan
foundation
diundang
paud
##turan
##upuk
##umbang
mengapresiasi
memproses
##akang
##epankan
papar
swiss
##orb
valent
aktris
##entr
membernya
berpakaian
##yadi
madinah
##info
pemicu
paparkan
girl
sung
pengacara
giliran
pengangguran
crystal
##pora
##uu
##dp
##yaw
mencolok
ruas
andai
kasi
door
penerus
bungkus
pilihannya
berbunyi
dampaknya
kuas
##ird
mahir
##figurasi
mungil
menggerakkan
track
##eget
resminya
buddha
permata
melintas
lisan
sha
##sihan
observasi
tempur
mengendarai
ransel
##anting
memperjuangkan
m2
skenario
pati
apotek
trauma
##ubis
menyatukan
##ings
##engarnya
pungkas
pustaka
lad
##orama
jet
##cha
jong
##ution
cool
bawahnya
ther
ele
senada
kelihatannya
pastilah
techn
kelamaan
ciptaan
servis
bertambahnya
##ususkan
massal
sydney
mikir
saing
ig
rot
dimuat
shin
sihir
mh
self
penumbuh
mengesan
jajanan
memaksakan
##istribusikan
pasuruan
pendak
kurma
kusam
##ices
berpisah
berantakan
alloh
gins
##andia
padamu
import
amp
sutradara
##tiap
badai
saudaranya
dpp
tampan
clean
##giri
mahkota
##opo
##inium
##onstr
klip
melintasi
gamer
praktisi
aer
kostum
blibli
buktinya
mengklik
lembaran
##tikal
kilogram
ow
berasa
navi
meneliti
tembaga
kuar
deretan
kondusif
##ations
browsing
##cle
khus
katun
paypal
pkb
menari
atribut
kalaupun
##iasakan
##fren
ukiran
pengangkatan
##td
sila
saku
jasmani
cris
lebat
plaf
##iskan
##rin
menelepon
undian
henti
membimbing
algorit
pizza
##ars
##123
kemuliaan
jp
akik
fitnah
pembersihan
naras
##burg
script
penuaan
informasinya
##caan
perbuatannya
toleransi
##embahan
awak
##enerasi
size
##ormal
sara
biologi
uap
ekspedisi
mengelilingi
kultur
spand
##hael
##ally
cryp
pokemon
sedikitpun
eksis
##ova
berjumpa
pengurangan
##otika
laund
sulsel
##okuskan
##dio
globalisasi
safety
bermotor
bimbang
orangtuanya
##14
memperingati
##jawa
sapa
lemas
klinis
mempertanyakan
##formasikan
77
ks
##alahannya
##obe
rossi
finishing
akhlak
perbelanjaan
warni
##mb
##hkan
akta
batak
berterima
farmasi
pegang
##alaya
ojek
apbn
##ated
isa
benci
harry
blackjack
mengesankan
content
debut
pencinta
partikel
cod
lendir
##yeksi
dicintai
sekolahnya
menyed
manjur
magelang
tani
##ingi
mengevaluasi
diberitakan
resepsi
##oksi
keterl
notifikasi
break
peliharaan
belakangnya
font
bawaslu
lembah
temanku
##wid
menyehatkan
##ocok
kepeng
ilah
ranah
##antasi
eksekusi
menganalisa
pengga
mill
rp2
geor
aplikasinya
meri
peper
##idiki
rumor
##iade
diwak
kutipan
##umbat
berdirinya
sgp
ted
bond
pita
background
##atannya
velg
bocah
##alon
kasat
nongk
##aras
berkompet
##table
dihadapkan
##kat
##amerkan
##enial
rul
dinamika
dibayarkan
teladan
bergegas
chris
##ism
narasumber
gt
dii
stick
ips
gond
berhubung
sala
zo
sabu
##berg
terlah
bercampur
##ille
##ren
sunan
menyapa
##asifikasi
amazon
bergi
pemutih
##intang
berkenaan
direktorat
##mentasi
bertepatan
##juran
##ical
ditanggung
rh
##estarikan
lele
dikonfirmasi
##eless
kedelai
##ipu
literasi
pemadam
kecurangan
pendatang
##fl
kecemasan
bernyanyi
cicilan
##rov
ball
space
bersenang
##dwalkan
mengedit
pemukiman
penalti
ax
genc
penyalah
##tau
dipindahkan
tutupnya
paus
##pedia
belaka
kebenc
melamar
perdamaian
jeans
##35
tolak
diberlakukan
bahwasanya
obli
inisiatif
mengidap
##umbangkan
smartfren
pribad
ion
dijalani
lingkungannya
berstatus
membantah
mengunakan
##alut
memutihkan
asas
pembunuh
tps
sea
##ius
reh
##inger
dilindungi
kebencian
mencabut
87
separuh
ditand
##usa
dialah
jateng
kyuh
pembawa
ngel
anakku
menaiki
serp
##empatkan
menggand
slip
yatim
intensif
##idangan
bio
penghitungan
eksperimen
ditel
lawannya
ketebalan
##gy
uin
pembangkit
that
acc
jaraknya
kabinet
dibunuh
masyarakatnya
asin
indosat
##erankan
satwa
meluas
bic
special
##aling
pernapasan
soto
penas
##isit
cetakan
##light
##apis
luput
kyuhyun
mengasih
##rofesi
syariat
##syah
pendingin
reka
sour
nongkrong
baj
##idin
##ongi
menjamu
##uannya
melanda
yi
##ball
logis
bergel
resto
kog
dikombinasikan
##galnya
gend
memakainya
first
untukmu
laundry
##orn
berkelas
mendekatkan
face
##nan
##ago
fran
lor
puji
propor
mach
tank
##omet
bergaul
memukau
mts
##ig
pensil
penularan
kekecewa
kuatir
##idana
bernaf
terungkap
##uss
vertikal
kement
alquran
mencat
gant
bingk
perkuliahan
##fir
rekrut
penanggulangan
nkri
tampilannya
conta
pki
berfirman
membawakan
pengr
menguras
buktikan
perpanjangan
drumb
ketert
perorangan
plafon
##enyap
paspor
fotografer
pangkat
sejenisnya
yas
##imah
dijangkau
ling
corak
##impl
koordinator
##engat
##liam
##ream
##okasikan
perantara
fundam
##alogi
mengherankan
kawin
sekelas
komis
coffee
kekal
##online
rekannya
megah
genap
pasif
dokumentasi
##jam
cakap
ruam
tertua
berpel
dilatih
julukan
pemotongan
dihilangkan
##iano
##bas
dimak
peternak
absen
##ipulasi
##inggo
diamkan
jazz
basic
disetiap
requ
cake
mengunggah
##usahakan
##pm
karimun
terak
ruko
##edah
satupun
menembak
dongeng
##fc
##utra
kemarahan
##onsumsinya
kemerahan
hidayat
##rani
kontol
hijrah
atasi
kanopi
bukhari
menyegarkan
mont
terbebas
duc
drumband
olimpiade
190
mempercantik
pelantikan
##die
menjelajahi
diy
publish
isis
##esel
##bon
##opsis
##esalan
mengedepankan
birokrasi
imajinasi
ngeblog
manufaktur
ipad
bakti
kepend
##ancaran
terlahir
referral
nuklir
dijawab
feed
sedekah
segeralah
didengar
dipan
terbalik
honorer
usa
seksama
dpt
dubur
meluncur
menemukannya
makanannya
mengger
##aham
aib
menyempatkan
nakal
terdepan
eksterior
berdosa
gantung
insyaallah
customernya
bersin
##lif
mewarnai
kudu
##vensi
molek
1980
migas
085
##orientasi
pendakian
identifikasi
##ikl
berbalik
##empr
hamp
jaksa
fiq
tungg
menjumpai
##iler
tj
mengusulkan
negaranya
##apainya
barca
##ohongan
detil
habit
##oe
##90
dibakar
komen
##gihan
##tib
ambisi
jawabnya
##mega
salon
##upas
melon
putrinya
bidan
hepat
kupu
bertumbuh
sebisa
##iskusikan
case
rating
merem
kaidah
menipu
som
asrama
##ebutkan
zh
just
marak
sebanding
pelaporan
74
##emur
peka
ibuku
silver
berbuah
antik
ice
deg
pemandu
##bay
yap
lansia
ppk
informatika
##cky
nias
meluangkan
##orbanan
rileks
memek
menanamkan
cali
pembacaan
pakailah
persidangan
dihadirkan
pengamat
kartini
##orsi
thomas
arief
kroasia
##enj
hendaklah
pembina
tegangan
bergengsi
menghampiri
##afal
gunanya
pondasi
menud
terlanjur
##ukanya
##olio
memus
daihat
fal
menyakiti
diabaikan
daniel
tis
1996
radiasi
pow
terjual
penderitanya
##ching
menyukainya
pemeran
86
keaja
nanya
asasi
moto
pengorbanan
##ategorikan
larutan
##ree
mint
persiapkan
tumpukan
antisipasi
##yuk
##ibar
##afah
subsidi
zain
perkan
analogi
terpadu
sahabatnya
pia
daihatsu
disapa
##gl
pribadinya
##andel
menyusuri
mengemb
logistik
##hum
##ingkuh
disingkat
street
##ply
outlet
mahasiswi
lipstik
menjualnya
tertipu
##alinya
keraguan
bidangnya
lik
berbohong
tangki
dias
##ico
swedia
surut
dikelilingi
mengalihkan
##asaki
##dm
striker
kambuh
pelangi
genital
orientasi
##ampiaskan
menginf
sintetis
menghindar
alpuk
pemberitaan
trail
develop
##aafkan
bertanggungjawab
panorama
kenyang
##emis
emb
dihukum
anggrek
perhubungan
kebangkitan
mobilnya
##tasinya
##wati
##lex
ibn
rukun
dihentikan
junior
bilas
perwira
##eal
berobat
tetep
panjangnya
##orr
beng
saleh
budak
digit
tunjukkan
##irah
##aspada
mengasah
langkahnya
serie
berdiam
pengrajin
portugal
hits
panggil
bere
inspir
bodi
mengagumkan
rongga
kakaknya
pemecahan
##indakl
moj
wita
tegang
kerjaan
redaksi
##arau
berhitung
##bound
##dh
deli
steel
hacker
maz
membanggakan
##yawarah
memberinya
olehnya
mengab
galeri
poster
cot
##adasi
pegangan
jena
mant
sci
alpukat
michael
##tikkan
kejujuran
bokep
william
##db
##trik
##yn
genset
rod
prost
sirsak
fajar
perdebatan
idn
soda
obligasi
defa
wedding
ipa
meledak
ana
makmur
klasifikasi
mengundurkan
perkantoran
jeb
membebaskan
rb
mengind
##entur
##usuk
diputar
fm
mencont
berkenan
meks
seller
keajaiban
suamiku
gabung
pemohon
deklar
##angkas
disisi
menandatangani
berjam
##ekolah
##ultur
terbu
genetik
booming
##onia
bayern
semif
##ejo
dilantik
tingkatkan
ramadan
patokan
debit
1995
##estasikan
tulisannya
uniknya
##abilitas
sekutu
kesiapan
sengk
idola
tertangkap
bohong
##alaba
##ontan
menginformasikan
meksiko
esa
##ward
lebah
patri
diwar
sidik
##estarian
sleman
diperl
wewenang
skuat
pekal
individual
trek
pikirannya
entry
kumpulkan
deter
entitas
romawi
atraksi
##pansi
gatot
insulin
jahan
110
toba
anggun
mengemudi
##ansyah
site
##kanya
omega
##kon
##ulaan
##tm
wasit
##angsaan
mempesona
menggantung
mars
melulu
##pinang
afiliasi
melukis
##akn
jempol
##enggot
default
kyai
dina
crypto
##iksakan
kelancaran
membenci
##ementasikan
##caknya
himpunan
flo
who
magnet
##ontal
antr
ess
##eu
kasir
khalifah
sukabumi
god
##arifikasi
##gran
doktor
ninja
##uja
lampir
efeknya
corpor
kesuburan
realisasi
semut
##ritik
vip
rawat
hidupku
##ebird
dead
##oshop
kristal
akademi
kwalitas
diriwayatkan
paman
ditemani
liputan
rsud
sesamp
resid
pinang
##ington
suporter
##opor
gelisah
perabotan
client
keatas
kitchen
imbalan
ketena
bertekad
legalitas
itb
camera
melem
multim
jes
##med
supir
gp
terjalin
memotret
dna
kubur
##irakan
sriwijaya
kpr
ebook
amanat
tembakau
mek
peperangan
batal
busa
mencantumkan
##udung
terpopuler
kembangkan
tower
dominoqq
inst
chatting
penyalahgunaan
pertanggung
##rency
berisikan
##66
kapur
dikej
singgah
##idrasi
hipot
##ope
dibayangkan
aparatur
##ensasi
jurus
##buhannya
kegemb
##onya
kaisar
pekalongan
getah
membina
saj
widget
said
terawat
kenakan
bergizi
mengadopsi
algoritma
##gub
kongres
negosiasi
sev
permulaan
bn
konservasi
short
##onim
maxbet
rejek
know
mingg
melampiaskan
aluminium
ath
kean
penikmat
ubun
golf
mustika
salju
komedi
sekretariat
kenari
cell
gender
dipertahankan
company
sentuh
meeting
asuh
##ancuran
pepaya
##ungutan
berkoordinasi
thr
ketiganya
tertekan
dihubungkan
bertukar
##ert
gagah
pengabdian
berlangganan
berwenang
bulus
penyu
kekecewaan
kost
berprofesi
lewatkan
antrian
rand
cib
stabilitas
##umbu
##cek
spontan
berpesan
kela
kangen
##ida
panda
##apar
capsul
##gra
kesedihan
even
blitar
##alla
bergantian
##usalem
dg
xper
penerbitan
berbaring
kegembiraan
penentu
kemir
mendarat
semifinal
utusan
##anggang
tengk
keangg
lsm
##arket
memulihkan
dioperasikan
##epsi
ink
ade
##ontalo
##sari
pemungutan
diunggah
paksa
wirausaha
ceramah
##ambungan
snork
keji
kemarau
tangkap
dikendalikan
manakah
fifa
berlama
##instal
kompak
wikipedia
berdag
kumis
hye
kelembab
##cr
astra
akumulasi
ciptakan
waralaba
2020
berlimpah
##rang
grab
jayapura
##yana
penyampaian
keenam
langsing
diresm
remi
raden
##ampakkan
banking
97
curiga
perbedaannya
mits
##indaklanjuti
##ayani
diseluruh
##akala
2d
bunc
prok
tugu
diresmikan
kard
penyaluran
berbakat
menelusuri
seringnya
sistematis
##ondo
za
gym
learning
karno
gading
teriak
##imanan
kelambu
##yl
##lines
matic
akting
mani
malik
diderita
biayanya
makasih
berorientasi
island
terkecil
hee
ganas
salib
ketujuh
argumen
value
terburuk
entrepr
next
##ves
bagaimanakah
rendahnya
pinggiran
##den
mengizinkan
##ask
victor
bereks
##ontarkan
aula
pena
gorontalo
brosur
kantung
##tiar
femin
lahirnya
menyikapi
joon
eth
simpati
dilewati
terlarang
ketr
71
source
lazimnya
ditul
amir
jomb
##orejo
berlaga
berteman
senyuman
stud
nang
salad
dikalangan
veget
hana
##incang
##zhab
pla
##ormat
xperia
kelaparan
nad
terlew
menggiurkan
geografis
bibirnya
memposting
penghancur
politek
maul
berap
diteg
modus
menyimpang
##led
##elatan
terbentuknya
menyalakan
lift
pembimbing
duluan
cuka
diperhitungkan
aplikasikan
penegak
puncaknya
hall
rim
karirnya
impotensi
melemah
turunnya
komplek
terbawa
hapus
dikemukakan
kesini
##aspadai
##pt
layer
##eraian
##ywood
seraya
membiasakan
##asti
hepatitis
realistis
berbek
lovebird
stainless
pv
##ben
##anah
pepat
dicuri
kementrian
magic
teknisi
gili
cimb
manggis
##ereng
##elangan
longgar
##ms
##oriz
##ason
mengawal
sakong
penerj
##yaknya
96
pssi
##ucap
wel
diamankan
disayangkan
mabuk
lapis
politeknik
bingo
cim
##presikan
##yid
keingin
philip
prostat
secur
assalamu
bath
##ulasikan
pengap
mili
ach
panah
dekan
surah
pemasok
licin
curhat
jangk
##quez
beratnya
##los
pemasukan
penduduknya
pantat
##iptanya
jeli
##egasi
dadanya
pembek
muridnya
pinggul
penyimpangan
membengk
##akuasi
habisnya
##untukkan
terpenc
belasan
kuncinya
wortel
menyet
##taskan
pool
berlawanan
advan
nunggu
margin
pencahaya
mengoperasikan
pelosok
bantul
diin
pmi
perjalanannya
##utanan
now
mered
350
79
abstrak
mahluk
services
ikat
perkasa
loker
bintan
##ument
ear
pemantauan
##copy
silat
giat
financ
##tabilitas
##cbet
keistimewa
sandia
##ubat
panti
ketertarikan
deklarasi
golden
watch
syiah
##tenham
fau
##jahan
kalung
sdn
bina
basa
narkotika
pound
tidurnya
terupdate
##atra
dimasa
##osari
aisyah
outbound
percay
mematuhi
sirih
shahih
caw
gs
##elasi
perceraian
capai
##amaikan
musyawarah
salat
tersusun
##user
82
##unching
perdarahan
brazil
##engkel
diperkuat
laksanakan
umurnya
kesak
konek
jasad
meredakan
pepatah
kiriman
lompat
parameter
diru
##otes
rekrutmen
##2nya
bem
institut
will
##siran
packing
inch
akupun
sinopsis
estetika
kelulusan
diselamatkan
##yut
polis
##ehi
##won
kekurangannya
bik
genteng
tatan
##sara
mengorbankan
keilm
family
##band
sekuat
napoli
aud
pendanaan
tottenham
##umu
memperbanyak
buruknya
konfigurasi
khan
160
progr
segitiga
##pos
berurusan
rezim
navigasi
berkeinginan
kriminal
flek
terisi
dikategorikan
dipikirkan
##field
menjemput
photoshop
cintanya
plt
##epak
##store
sedot
lemp
dihadapan
##150
dikenali
national
##gon
perokok
##tiban
memand
mesjid
sambungan
##indonesia
1994
ditandatangani
acer
membantunya
urban
wafat
##tuan
sandiaga
menikmat
sabang
seberang
##amis
diunduh
bersamanya
diwujudkan
##bank
pengas
demonstr
maut
##enggal
spam
##ardi
dragon
trim
transisi
sumberdaya
##zim
almar
ami
syn
cangkir
pendaki
imunisasi
terser
menginfeksi
pepohonan
bereaksi
##anjat
##aksikan
entrepreneur
aa
syaraf
cpu
basuki
cyber
pentas
penump
jabatannya
iwan
membas
energy
prom
wo
korpor
gugatan
mertua
tanggungjawab
hindia
elit
kebenarannya
##cket
gaib
##lukkan
berinisi
kemari
##lika
ditargetkan
mengantongi
areal
perpisahan
membiayai
##yangi
daily
ney
singkatnya
shirt
how
##dar
dicuci
direksi
katakanlah
ketahuan
menyanyikan
menyedihkan
gusi
alarm
dipasaran
penghilang
rio
cag
komisaris
##enag
##eport
petaruh
##bolinggo
##odik
##elling
menunaikan
kelangsungan
##pret
general
negri
##dom
kurs
debat
maraknya
penggantian
##ete
##oshi
sentra
##acita
percayalah
##krim
ketegangan
berbanding
##fornia
yen
kesehatannya
aborsi
irak
puting
purnama
pembatasan
transformasi
kedekatan
turunan
its
shock
bertema
##uhid
dijadwalkan
##iruan
##gg
story
##ehensif
melun
bayang
merak
##cokan
##emik
perannya
perbinc
ditayangkan
sembel
sehabis
abn
ketik
jenggot
rekayasa
terlaksana
saji
haus
diakhiri
sikat
optik
bub
purwokerto
ciuman
##unggul
##39
##arab
##buhi
sumatra
fifor
melingk
leluhur
organisme
probolinggo
mengasihi
##gakerjaan
sorotan
segudang
lut
ruh
kewan
senja
nasehat
janda
saksikan
bermod
tunduk
robert
sporty
kompor
##integr
mendoakan
what
wahid
##alurkan
spt
processor
penipu
she
pencahayaan
berdagang
##implementasikan
security
##pektasi
dimenangkan
penciptaan
passion
tuliskan
paj
memecah
merepotkan
thank
rejeki
vill
##imax
##adat
##etra
sinus
paste
ral
branding
1992
lauk
kebur
##aminasi
##pers
##eriahkan
cost
##aten
##andra
token
berkenalan
rudi
mada
tubuhku
koreksi
porn
84
##mit
##osofi
##ihad
banner
bugar
ketenagakerjaan
inteli
dream
terse
menyembah
menek
satgas
##enggang
mencatatkan
ekstensi
penyewaan
##ingungkan
repres
talk
bojonegoro
berlainan
milenial
menyuguhkan
smpn
akui
faham
sesat
pencat
ketrampilan
antiv
##gunan
##ican
memadukan
harum
hasilkan
capres
mai
rin
kelembaban
##dagangkan
development
cha
nm
mement
boro
penjahat
kenali
##dragon
##enzo
interaktif
molekul
multimedia
adr
hart
gandum
santan
spring
cho
fundamental
dharma
##duh
ceritakan
menikmatinya
##eliat
predikat
california
terpencil
xii
lou
asset
flat
sekda
dara
eli
pojok
##edan
paper
rawa
sudir
##isisi
diperlakukan
judulnya
kemandirian
halim
##otakan
memetik
melipat
mingguan
jel
menyita
remote
rate
tumbuhnya
tertun
rintangan
##ache
penjajahan
akh
pencuri
subang
jenazah
moyang
disp
##utasi
idol
hamparan
fiksi
niscaya
majikan
dot
##unduran
pengal
neur
berperang
koki
ming
1970
komprehensif
##face
ketid
pacarnya
jahanam
diteruskan
61
melirik
tandas
gurunya
berjangka
kapolsek
cin
made
lupakan
##oho
mataku
mengalaminya
kura
np
jambu
penari
minimarket
myan
marquez
##ribu
karat
diwakili
##plor
ganjil
bersa
dida
bagimu
sirkuit
subyek
ramping
pendaftar
pelem
hilir
suap
ditularkan
memasok
##ude
##cast
kebohongan
spanduk
melan
beh
berlipat
pencerahan
dikhawatirkan
kkn
snapdragon
fatwa
pangsa
eye
keimanan
memacu
##lek
tertul
dekatnya
##38
tea
diklat
neymar
##tk
rp5
firm
tenis
##akata
board
komandan
tara
mengecilkan
##ades
kegelapan
##arui
##orak
kehutanan
chipset
rakyatnya
selayaknya
kearah
kompetitor
##osisikan
meninjau
local
derma
##ombe
kelanjutan
pick
hebatnya
hl
##dem
kawasaki
kewira
brok
##ekanan
##order
dipadukan
canon
hatimu
treat
kemaren
mpr
bersosi
##pula
varietas
berkol
keja
menjauhkan
kebutuhannya
pemakaman
myanmar
##ire
lon
##oria
jatah
diku
kejam
gim
warganya
##ungguhan
ketahu
menyisakan
bercanda
hok
##29
flashdisk
fotonya
uud
terunggul
payud
kulihat
request
haj
##jud
##dit
atmosfer
bim
yerusalem
##raw
##zinan
intervensi
tuduhan
lestari
mendengarnya
##ст
rumusan
##room
digel
kerah
ditonton
airlines
##cabut
sedia
##osip
tirai
holdem
dibenarkan
tatanan
##utarakan
menyempurnakan
##odetab
##fit
##upkan
etik
ruf
dkk
filosofi
lamongan
##ubishi
khil
begitupun
##imut
kaset
solat
kolonial
percuma
slo
masi
cukai
keistimewaan
kependudukan
kabut
##engaran
perizinan
##tasikan
##hai
##odetabek
mempergunakan
##aksimal
##efl
penyerapan
##esmian
dc
lecet
keburukan
hub
old
jombang
bagasi
fiforlif
4d
pemir
from
##hou
diterjemahkan
##yol
penyul
keinginannya
memilki
modelnya
diperuntukkan
sembak
reward
##yarakatan
##ganda
##nitif
##arinda
timor
##elajar
##abilitasi
##ertaan
bawahan
##lindung
kemunculan
diizinkan
deposito
pengirim
jelang
89
bron
##enahi
penggerak
melayang
disusul
dikon
handi
merekrut
pelaksanaannya
pendukungnya
mys
mali
blognya
##isiplin
backp
menghiasi
sic
anemia
hahah
disinilah
penisku
mencerahkan
diamati
jamin
##ulangi
menunduk
percetakan
ama
hadirkan
##imal
pertem
gluk
institu
dikalahkan
merta
kubah
penghubung
lelang
movie
dus
##mawan
radar
abis
foot
mitsubishi
diband
kewirausahaan
terampil
niatnya
anehnya
cah
kehadir
cemilan
pemikir
lukis
sentim
##gari
merindukan
pundi
rias
legendaris
diset
date
##wich
rese
memaafkan
##sk
##uw
kafein
menginstall
drone
elektron
keberl
dzikir
menerimanya
distrik
antivirus
##olasi
terbenam
sakitnya
komunis
diperintahkan
jeda
ekspansi
samarinda
sudirman
hidrop
dilepaskan
terdeteksi
##enangi
diap
keanggotaan
sembako
menjauhi
akademisi
penetrasi
tebak
alamiah
produksinya
jon
lurah
didefinisikan
membingungkan
##arut
tauhid
titan
racing
bahasan
luasnya
retail
##atic
friendly
##dies
traffic
angan
pewarna
herman
##dagri
rpm
kelasnya
vent
dominasi
temp
elastis
keterlambatan
baginda
kesaksi
dai
lorong
kuah
second
samar
optimasi
##ermin
perawan
mlm
##tugaskan
memenangi
mong
ghz
taruhannya
bayam
sebagi
psikolog
uts
index
modis
panggang
moham
filmnya
pencatatan
camilan
terserah
##anza
##ampar
barangnya
ganteng
tuna
prinsipnya
kesusahan
pelec
pernaf
bayinya
##69
melia
diserap
##rutan
ketahuilah
konseling
peresmian
brun
futur
gelaran
paradi
masehi
gum
##erjanya
##apas
diteliti
lock
return
gambarnya
bait
perbincangan
kedi
sakura
sahaja
##ambangkan
##aaaa
dum
128
besutan
monumen
##wai
##ove
franch
##abah
##emy
peramp
mendalami
cikarang
japan
gri
idealnya
vegas
spekulasi
berbincang
pkk
marilah
penat
peter
jemput
integrasi
tetes
obatnya
mengabadikan
jabodetabek
kognitif
irama
standart
layang
##upsi
konversi
menghendaki
##udaraan
mog
##py
mojokerto
##ebes
nafkah
eka
dn
maknanya
biak
sports
charger
##alaikum
memulainya
furnitur
peminatnya
mendidih
bolak
rayap
ilahi
##intangi
khala
##yet
mimp
imigrasi
ekspektasi
susp
##adow
##time
rai
haz
wong
dinan
kesempurnaan
mutasi
##wannya
asmara
cemburu
jomblo
##rain
tertular
auditor
geb
##sum
membengkak
##ratis
##oton
horor
base
##lintas
##ancong
organiz
keilmuan
##rove
menggemb
quad
pangkalan
indom
penyesalan
dicegah
diker
konsistensi
mengobrol
chart
pengalamannya
donor
cawapres
syahwat
psg
silinder
##ungsikan
##encia
##sesi
draw
dinasti
dibuatnya
mengindikasikan
mamp
meragukan
##ekerjakan
##timun
kegiatannya
dihuni
kekuatannya
kompres
patuh
roy
melestarikan
anwar
hidroponik
pelakunya
metod
sejajar
menyambung
perutnya
kehadirannya
cemer
penangkal
oven
property
ill
panw
##32
investigasi
pilgub
popok
paku
##assi
niaga
sengketa
pendampingan
florist
ultra
##atunya
ngasih
##ikbud
lk
##rr
##trum
##enyak
kecer
##emarnya
plaza
dipajang
kedaul
muat
##resh
suv
kaka
##ungku
melukai
peluru
getaran
tasikm
##ampurkan
bersaudara
proteksi
subhanahu
keseruan
langganan
selesaikan
tergi
perasaannya
ketet
##afsiran
meles
hiu
ketagihan
vii
kepat
pasrah
joker123
bani
menyinggung
rpp
##ayanya
##okol
dilayani
##onald
powder
##ication
rektum
horiz
##zab
entertain
duanya
pengarang
1993
##oting
##ulik
tempel
lonc
duri
keak
##oles
##uting
##tery
glass
lipstick
bersen
wilayahnya
cb
central
diagnosis
sengit
american
leng
selap
bernafas
rambu
##omax
##egaraan
##odohan
tebakan
##iro
serbuk
ultr
##ekh
##ugh
nuran
##orth
alph
joo
hello
##reen
mario
menandai
adaptasi
##ancer
terik
140
pernafasan
bersekolah
selaras
conc
bergulir
gerhana
kisi
backup
berlian
##ajakan
lapor
pdam
berkonsentrasi
daw
meme
warnet
respons
pramu
pertemanan
slam
longsor
benarkah
merap
dup
mass
dog
mukmin
lalui
##yangan
busuk
sempr
maxs
gord
kacau
rangs
##egon
ditugaskan
kenalan
disalah
persaudaraan
penampakan
chrome
pusaka
##embus
kerudung
lapang
konk
diiringi
##col
lag
runtuh
kans
skpd
##aktifitas
rama
##taruhkan
lintasan
loss
ismail
melelah
fly
research
naungan
perhelatan
traveler
cemerlang
arteri
rach
sembarang
vet
selebih
menyesatkan
kho
marc
##arium
terputus
mobilitas
sink
menyalah
son
berkolaborasi
penelus
duh
guide
tasikmalaya
##wawan
##omen
memad
dires
meleg
hj
perundang
saint
seat
130
mengangkut
##derhana
mementingkan
nich
kru
gong
genggam
terpec
biarlah
pelac
paten
menungg
vaginanya
efektivitas
wireless
interview
nadi
sket
pixel
##ocoran
ridwan
sulitnya
kanc
telaga
press
##ega
ppp
conn
##arisasi
fitrah
##gio
dm
memanglah
balok
mete
cobaan
##try
##rt
##amen
semaksimal
##wawancara
penyidikan
cashback
mentor
##tisida
kerumah
spor
tent
tay
prev
curah
kuartal
kebijaksana
##far
5000
##ebarkan
nissan
selektif
terdiam
pelbagai
diperankan
bmw
beach
grav
boros
menikahi
##innya
##vern
pengus
melengk
konyol
selebihnya
pendengar
##uluki
##vert
melelahkan
walatra
lamp
dermaga
##ompokkan
kesepian
##angkara
memperingatkan
##ukir
beraktifitas
##anggal
kejaya
menge
dimungkinkan
berdom
konstan
##eras
cristian
beluk
##lit
lh
semak
##yim
stak
konsultasikan
sumsel
memerangi
raihan
panggul
pist
##usai
christ
berjaya
diposting
kekasihnya
kedaulatan
##tekkan
berbatasan
penghalang
dipat
kunjungannya
marmer
membongkar
eku
ump
##ulitkan
##itra
penggemarnya
hara
prat
##ongkrak
##airkan
##ners
entri
##ott
pps
ulasannya
membalik
##ен
marga
bervariatif
pinjam
##lor
##zy
menggapai
petinggi
dram
hamb
pemirsa
night
syafi
princ
nugr
campurkan
shampo
perselis
dicek
##asya
english
avanza
diantar
tragedi
paduan
cakupan
bij
##ambakan
herb
ika
sead
waduk
pelecehan
sle
##arik
pembangun
gejalanya
rangsangan
##ced
dibawakan
360
kebocoran
postur
penjajah
xp
minahasa
diplom
##tit
paradigma
##rahman
##uit
evolusi
170
lead
islamic
membahagi
aur
sena
aksen
paslon
##opak
buruan
berbekal
device
register
zinc
jd
nekat
screens
mengkhawatirkan
almarhum
raz
mempersembahkan
##ose
mengenang
ekstrem
##urs
menghafal
tki
manga
tergel
betawi
statusnya
equ
ulah
##porer
##34
keris
fish
ladies
menyir
kewanitaan
nyi
##rab
disc
messenger
yahya
neo
94
##tiaan
kesaksian
tere
nyari
sembun
pengurusan
komodo
inspek
##inambungan
##daran
treatment
pembesaran
sahur
siaga
terkirim
leader
rules
ov
cerm
kejar
sabda
merch
royong
kerum
dash
betis
paripurna
loy
##fo
##langga
terbantu
putera
menggosok
melapor
terkendali
hibah
menep
frans
editing
memilihnya
pembat
ritel
##acun
petrus
diburu
aji
##ving
kodim
##patib
##acap
keseb
##wil
perpindahan
##estan
terlatih
##ов
irwan
penyajian
lengkapi
klaten
##mal
lans
banyum
beku
##elekan
beat
2x
##incare
bertulis
##anggungjawab
donasi
##pri
##edahan
protokol
##ihannya
disahkan
##bukaan
##unjuk
nh
bari
emisi
mengembang
financial
kades
access
silang
amd
##ipan
##gel
sarat
habitat
kelebih
terhenti
glukosa
mantra
keraton
matte
director
diserang
study
purwak
pembebasan
intl
lady
lampau
kepengurusan
hipotesis
beneran
diusulkan
gencar
khat
##ql
berjama
mania
menyelam
##aco
ix
sederajat
terf
pair
##oci
sembelit
##kanlah
remeh
dark
peradilan
##oph
membutuh
keranjang
switch
kontem
abnormal
salmon
alamnya
dituju
majap
ubi
##uare
##otot
mekar
medsos
##currency
sinergi
menyulitkan
intelijen
##oritaskan
ron
##hentikan
##uban
##rio
rekam
##baan
milih
nanas
jor
limit
berkeb
private
bnn
anas
menguat
hipn
f1
mengekspresikan
##ando
dapil
mahu
##goda
portof
##udhu
##osialisasikan
##epit
khalayak
akbp
penambangan
penghap
##urun
frank
kilat
mapan
penelusuran
perselisihan
menopang
berpikiran
majapahit
ojk
kredibilitas
bisakah
kuhp
entertainment
lenyap
gaz
fix
piutang
slogan
johan
irit
tumpeng
karyawannya
menampakkan
poros
lalat
selimut
match
exc
berkompetisi
kompeten
memperlancar
pelep
##ahara
jg
mengis
kebijaksanaan
fantasi
dibandrol
##erinya
blues
##26
ditinjau
bingkai
mengulangi
##long
menyelidiki
arema
goal
##endahkan
melempar
selam
denganku
##asangan
inflamasi
ridho
##aret
front
##yuh
gud
memanjang
cangk
berun
keterbukaan
angkot
perti
waris
fox
launching
zodi
##tical
eksotis
sujud
rahman
sedan
nano
beralam
temu
##covery
geng
mendiskusikan
sod
##kantor
catur
sumbawa
sevilla
penyem
##umer
##ikatan
mencampur
dituliskan
fisi
##ilau
naruto
kanal
a€
diup
menyumbang
katup
##adana
skincare
resta
enzim
kutip
parlay
konektivitas
cilacap
##ucian
##visor
membahagiakan
watt
##cah
portofolio
diskrim
kaleng
eksplorasi
rehabilitasi
##akh
weekend
berpeluang
ads
koment
stiker
kebesaran
##iat
##enture
kontro
##esif
dehidrasi
asalan
bertolak
ruu
penand
pembuktian
penegakan
kalanya
relaks
uv
takkan
menghindarkan
pelukan
orang2
sangk
kolon
technology
dukun
opd
teksturnya
menyantap
ditempati
kencan
dikhususkan
tergiur
selaput
##verage
arom
pencemaran
microsd
menges
##wana
istriku
##hering
daerahnya
orange
stakeh
andil
keutama
vokal
benturan
luhur
toto
##eplay
##tipe
nob
portable
kalk
ubuntu
vena
meditasi
terpisahkan
gate
##oan
##gis
lubuk
berkur
##akm
tours
meniti
manakala
perusahaannya
ketombe
profile
snorkeling
membanding
ilmunya
sni
##itarnya
##embung
sedari
akademis
bicarakan
bergaransi
centre
berdomisili
retak
dilupakan
tuban
lembang
pelembab
##arsa
##riti
riba
keputus
penghapusan
klop
sne
hadist
party
hidupmu
bkn
dire
##edu
##agaman
lakukanlah
menghap
purwakarta
iuran
tertanam
dipelihara
analog
riil
s3
tempatkan
##utat
mengajari
melebar
delegasi
mayor
##obak
diberitahu
##ident
menuduh
##key
stylish
korporasi
apps
##ijab
hoki
pig
income
1960
##itahukan
meraup
binomo
playstore
menuntun
mengunci
memalukan
tae
dirugikan
martin
assist
##cp
##amur
##rioritaskan
magang
kolektif
piano
d3
seksu
##imbangkan
##ania
bertenaga
singkong
##uncak
##uay
bersembunyi
azi
##getar
##engger
dagangan
tersumbat
berkari
terbuang
dk
capsule
kepadatan
maf
malware
taruna
##iksel
valentine
ajar
everton
anton
##egar
dikeh
counter
pembatas
brebes
menuntaskan
wp
##ardo
##ahir
berjer
buncit
##fur
kevin
berpusat
reset
religius
##akarya
casual
##kati
pecahan
table
penyakitnya
itunes
kelayakan
agamanya
solidaritas
pengajian
##vestasikan
demokratis
##elo
lampiran
penyandang
menyayangi
kuburan
##likan
##27
kembung
sambungnya
##jad
##yc
boat
hollywood
terkumpul
segitu
##unggulkan
adobe
##roli
##osongan
##aktifkan
##verifikasi
menghukum
##ges
price
pj
ze
##ann
contact
irigasi
mentimun
mengkaji
mn
pkl
tersentuh
terhormat
disaksikan
berakhirnya
seusai
kelopak
refleksi
spektak
biologis
bps
institute
kisahnya
penandatangan
terciptanya
serasa
vib
##lr
memerintah
akurasi
hidr
yoon
keperawatan
lia
1991
##muka
bilik
kaus
menul
hack
shalih
fisiknya
nirk
bersu
terulang
dieng
wardah
antoni
bertuliskan
lotion
tkp
##buruan
ish
memanfaat
ampl
menjunjung
kejaksaan
pantauan
##aps
##mund
##rakan
kidul
potret
saudar
ue
##jangan
##bk
##gera
sesampainya
handicap
cuba
dijuluki
duga
jahit
81
aktiva
3000
kelebihannya
chic
##uruk
temperatur
##ehe
talenta
kecap
##avi
hengk
chap
rc
terkuat
##isaran
vpn
auth
elf
quality
##idangkan
kolagen
curang
memperebutkan
bass
denger
valencia
loket
teramat
dijanjikan
nyenyak
##inginkannya
pelayanannya
cristiano
##otel
segelas
terlampau
terjangkit
pornografi
pph
yoo
simpang
ironis
kejang
lb
##trin
letakkan
perancangan
neraca
##onde
arj
##asy
penuhi
strip
komando
##ihatin
##egradasi
datanglah
nasionalisme
jihad
gk
cuek
indoor
setelan
teper
datanya
mentransfer
dicabut
mujarab
terkon
pendengaran
luis
karenakan
ditunda
jurang
mining
##iklanan
season
keka
diputuskan
kontroversi
sumbar
##ahului
community
abbas
electr
##gs
termotivasi
merumuskan
tm
kompensasi
ringkas
toner
dibareng
##eksinya
disim
diawal
ready
pare
denganmu
memperhitungkan
purba
sekira
pengaman
maps
menuangkan
selingkuh
chang
bale
psikis
washington
extra
incaran
##44
slide
solar
sulut
memodifikasi
perabot
biod
pengaruhnya
pasifik
ibcbet
artian
csr
amati
krip
perkenalan
##esia
disuguhkan
tetapkan
nirkabel
##quid
bergeser
##tional
humor
bernuansa
gantungan
bersosialisasi
motiv
historis
enaknya
perluasan
seadanya
akril
pramugari
##ekam
dw
esp
yeon
##uling
urine
minimnya
simpanan
notab
spektakuler
bermainnya
##aminan
ngerti
kalla
bule
jiwanya
ketetapan
menggantinya
jr
kebawah
##esty
pai
rp3
##naan
##75
##amart
esensial
nal
pengoperasi
##arung
hani
aksinya
usern
##post
guardi
##65
taraf
kapolda
nila
buntu
##ody
persembahan
perbaiki
meraj
bangsawan
berlubang
score
menggandeng
##eru
lereng
difungsikan
karaoke
##128
disematkan
menabrak
menyengat
##esahan
##bers
pelet
ani
antusiasme
banyumas
terindah
kuc
kid
memburu
uno
dilewatkan
tanggap
broad
##ihatinkan
tanjungpinang
great
##peksi
isyarat
mengisahkan
##78
pemenangnya
berinovasi
penanda
nai
terlintas
##lahu
kardus
berhijab
petang
mengantuk
perlunya
##angganya
##tics
##oku
css
ptn
berjerawat
timbangan
tinjauan
##rul
##fil
diperdagangkan
mendefinisikan
kurangi
flag
berbulan
dilapisi
sulai
krusi
beralasan
burger
wijaya
teperdaya
lif
megaw
##ariannya
terpakai
oks
blo
digi
beracun
didasari
urus
tato
##lame
##tunan
ornamen
83
##oroti
town
gojek
gear
##hal
akp
bala
##fak
keramaian
akrilik
##other
prest
estr
dibatalkan
bertajuk
terusan
bercerai
kehancuran
acad
penggal
dibarengi
##gugat
mekanik
##unda
ajakan
uns
memburuk
terpapar
##empar
##basi
pelancong
##olet
godaan
hakekat
doang
mengangguk
##guguran
##acy
klim
gunakanlah
##anannya
##anikan
menyanyi
digand
##atangi
##eon
seneng
sekej
temurun
about
memperlambat
loading
pilek
tweet
memamerkan
##elintir
username
rain
##mmd
rer
kepe
square
unjuk
hih
##lasifikasi
##organisasi
range
##unting
disabilitas
kurnia
garden
moneter
hill
bidad
gunawan
pergelangan
pacu
##akmuran
92
dedi
berpegang
rider
berkreasi
penekanan
##umpah
fenomenal
lengket
menurunnya
persija
menyisihkan
menjel
garasi
ditangg
snack
kaitan
##bukkan
##mau
menetes
diponegoro
mengartikan
##akoni
pedi
prosesi
spirit
teratasi
theme
##osong
##akum
responsif
george
aspal
disalurkan
##rar
senti
pega
htc
steak
450
##bannya
liang
menjamur
##giat
berkepanjangan
terku
mempelai
apalah
hyper
memintanya
iskand
menjelajah
stone
prime
grade
zam
inget
lorenzo
halangan
trofi
reza
diutamakan
mengering
daring
bernapas
##etaan
krusial
jemaah
balan
satria
##uel
keadaannya
diperc
menyep
jogjakarta
gratisan
sejarahnya
nasdem
kebangsaan
pandan
gemilang
pingsan
tmmd
notabene
terses
boss
berperilaku
kekeliruan
indonesian
750
cianjur
tertata
rose
##dapan
##ompa
##hm
rival
ukir
bergetar
melambangkan
##angkung
pav
sejuta
pegal
mela
##endra
##buah
memberikannya
blender
##nd
pemangku
##ikmatnya
hidayah
bungk
##uarakan
rame
tega
kelautan
##tainya
mengoleksi
selat
##ores
nike
name
demak
##fu
dramatis
bebatuan
keluarg
demonstrasi
intan
selebriti
wakaf
sportsb
til
anjuran
lep
##didayakan
##loitasi
fosil
state
ce
cilegon
1950
kesakitan
##egat
sbmptn
kemew
freeport
vga
##enankan
pakistan
agaknya
##efisi
nurani
##edy
memperkaya
##aster
jatuhnya
express
##mis
kemahasiswa
terhambat
lewati
ketepatan
keripik
keli
zodiak
station
bongkar
##200
narasi
##page
##sar
dihabiskan
renyah
##daian
##angu
pasc
pemburu
membutuhkannya
instant
ngeh
motornya
##ilahkan
pemisahan
##sed
kecintaan
persia
##ulur
industr
racking
dihiasi
federal
thor
entahlah
##lie
##awijaya
##baran
memon
##obatkan
layarnya
##ces
##bin
melangsungkan
ord
dikit
router
##ece
##cau
diperlihatkan
termahal
memaham
kepegaw
hakikatnya
jajan
djar
alfamart
semin
tergoda
satpol
disangka
##yad
keutamaan
##tiran
lagipula
menganjurkan
menjer
##ualian
antarmuka
konsolidasi
spo
##onder
polandia
rapuh
obama
viagra
senapan
extr
topeng
gpu
taufik
##aksinya
pemesan
dibesar
kecangg
hernia
menyebalkan
##fri
blora
putranya
terumbu
makannya
situlah
##terinya
mabes
##max
moms
terselesaikan
##budur
regenerasi
jusuf
ll
py
##cangkan
pain
bera
bersenjata
lir
primad
##emo
pernikahannya
monitoring
##icau
digoreng
daunnya
disney
truck
lumrah
rumahku
franchise
insentif
membungk
facial
##bour
memud
##ege
menegakkan
salim
zomb
shut
##uncing
dish
travelling
##ano
bidadari
rudal
kejayaan
dimintai
rebusan
gerobak
dirjen
catat
##bie
menghant
aduq
##kup
anyar
tersesat
monyet
##ihir
habiskan
membran
##kam
ngak
suruh
desakan
flow
##oroid
##tibmas
kebagian
##isia
##uninya
untukku
##ijinkan
kemahasiswaan
93
mereg
duniawi
panci
informasikan
diprak
menaklukkan
sumbernya
penyuluhan
##abar
periklanan
acap
haknya
borobudur
wag
ox
##yer
##ebutan
turbo
kontemporer
loyalitas
abrah
egois
abdur
berbahagi
sebelas
sekejap
##agnosis
akuntan
adver
bai
menoleh
##list
pran
kekaca
berjaga
goresan
disertakan
laks
nyany
tunas
snmptn
##rup
defisit
payudaranya
moon
nd
didatangkan
siak
kehebatan
tick
jurnalistik
beruntun
urin
expo
wenger
##istribusi
sista
epo
##4d
akarnya
hatilah
isian
##jai
arang
delta
ranting
kedu
##alim
##ongs
dibuatkan
mengikutinya
edy
produser
nek
serahkan
dlm
downline
##bagaan
menyumbangkan
##2an
bersam
##esti
tatapan
coup
1989
jang
kepal
iming
telp
harimau
daur
sampingnya
##amyong
turunkan
beralamat
mengep
dirangk
##omnia
ground
kompatib
##aging
pribumi
mou
menelpon
sumba
hash
alian
##uliakan
kepegawaian
puteri
denga
meremas
preferensi
mending
syi
##ute
empedu
dikejar
##dress
audiens
resi
beraksi
transit
##wad
ketek
kumpul
##pkan
kejelasan
menyiksa
chef
mengenalnya
patroli
notaris
##eranya
##jaan
pucat
buff
oris
amino
ginsamyong
pembatalan
og
gesekan
shower
kurban
##fas
kekacauan
shopping
gugus
##gakan
krom
dipertanyakan
sekurang
##erior
memprihatinkan
sembah
jahitan
mengalah
cint
result
bermalam
##hur
melam
trafik
menyamakan
sekat
ipb
##asem
tipu
pemben
resor
fold
gigitan
nep
airlangga
meresap
##urant
polo
viii
guardiola
menyandang
rizal
syaratnya
bantalan
##elaran
brown
slamet
memperbarui
##endong
lebak
##tabel
tertunda
fari
menghimbau
kedamaian
quick
history
pit
anakan
##asat
##alonkan
mengeluhkan
dorong
pemaparan
menuruti
ilham
##ense
leic
detak
penyangga
voli
tebu
pcs
enteng
dihormati
suspensi
kritikan
runner
menangkan
ketidakp
##kol
meneng
belilah
amarah
memar
##elur
basw
kesebelasan
degan
dilipat
gathering
hammer
siku
leicester
kron
##ador
suntik
kica
##ambi
ultim
##ipa
journ
##monisan
imut
tl
##endidikan
dicerna
koi
elite
disekitarnya
stev
dibebaskan
##ontokan
pantang
##ison
keterka
##uster
kekeluar
mother
tengok
memanfaatkannya
##truk
termudah
sovi
sebenar
##ics
melengkung
kece
charge
diberbagai
prasasti
kampar
##eline
aksesori
menggigit
diagram
istan
nangis
ubud
tn
qi
follower
richard
wes
classi
tercampur
##his
sulaiman
seoul
sinkron
fab
rog
unlim
tangani
alien
##eco
interface
##icky
labu
kemewahan
unta
casing
menyimpannya
literatur
horizontal
primadona
pod
##otr
sunset
##anggungjawabkan
##nahkan
anis
sejujur
klarifikasi
focus
perges
sukarela
bangkrut
assalamualaikum
thanks
memberatkan
##bia
memfokuskan
vimax
memahaminya
kekeluargaan
perbuk
hijri
rangkum
path
gurun
move
nyonya
##yukuri
bd
cbr
higi
kecanggihan
memilah
digabungkan
berlayar
##impor
proto
iskandar
kemakmuran
yaman
berapi
vas
ning
pemetaan
diwaspadai
berpasangan
disun
govern
##olitan
kaskus
dengarkan
bong
taruh
krn
kompos
sportsbook
##yung
aurat
sepup
yogurt
mangrove
wonos
##nie
##∞∞∞∞∞∞∞∞
##jawaban
prem
##ulung
zon
rabb
cul
mahar
pertumbuhannya
##onaktifkan
oles
contr
sungkan
arifin
bergairah
wkw
lipatan
sesuatunya
baswedan
rapih
##jaran
najis
putuskan
kesimpulannya
santi
bahawa
donald
information
sekjen
otonomi
sertakan
masanya
kontin
mengemas
scrub
rang
metrop
lite
##rie
pencairan
nyanyian
##ukim
after
resah
tiger
bilamana
penundaan
tinggalnya
jud
keragaman
look
hik
samudera
##integrasikan
##satu
cache
##ilik
mum
##verse
mengkonsumsinya
join
var
sukacita
##inn
mengincar
##ede
##ekara
pelepasan
soviet
bersinergi
kontraksi
pencucian
kemenag
##bungan
meninggalkannya
pestisida
##embelih
wallet
geografi
pelopor
bapp
sugi
kenyal
kantornya
abraham
didistribusikan
insomnia
reuni
empir
mewajibkan
rusa
##ustasi
prihatin
unlimited
membek
kemasyarakatan
##uknya
##obao
disebelah
pemud
random
manusiawi
dagingnya
dropship
##idor
pinter
##uba
clin
kepiting
##rungi
toraja
##endung
hilangkan
bertiga
##ante
peti
merambah
restaurant
##pam
direbus
kekosongan
minoritas
dayak
teriakan
didaftarkan
satur
penambah
telegr
kekeringan
gosip
brawijaya
syekh
iain
pengatur
race
stem
pengecualian
gho
mengkritik
pembayarannya
simpat
##master
berdatangan
gotong
##ра
menyeimbangkan
beij
indera
ajukan
pendahulunya
fai
salinan
##joy
##ential
brew
sekecil
##incir
lionel
mainnya
ketidaks
gravitasi
memeriksakan
##aiannya
mec
menggugah
dikemudi
goyang
hap
melati
menggal
3x
##upi
parasit
uh
duel
veteran
##aannya
tercermin
1965
gejolak
cheat
tontonan
dilangsungkan
memint
sorga
##yas
keari
pemandian
kanannya
memperba
capital
ppdb
serasi
pemanis
hadap
filos
mp4
##ombia
finalis
born
karakternya
pengalihan
##araja
whit
perempat
doktrin
masy
188
##imis
##uplai
dipungut
shol
##urutan
membacakan
gosok
##gk
tris
##baharui
kerak
penind
bendungan
sudahlah
didatangi
berkelompok
mengoleskan
##rek
penerjemah
meminimalkan
kulon
uskup
expert
menganggapnya
tt
sei
##ener
plot
menjawabnya
penyerangan
lingkar
kutub
haru
balkon
adrenal
pemberont
syuting
kib
bagusnya
melemparkan
multif
##ibahasa
yuli
merendahkan
kelembagaan
##urahkan
##ates
inipun
##bup
ric
ayahku
suplai
##wp
meli
address
menghina
louis
peruntungan
tuju
chil
arya
north
dst
kob
##mid
mengkonfirmasi
moda
##busan
##aci
cant
merauke
perusahan
queen
meremehkan
mempercayakan
mengum
##vy
mengamalkan
punah
##dalam
beijing
##angsur
kaltim
melonjak
##aq
ditunjang
integ
adit
##ikhl
odds
setoran
##stream
kepatuhan
disiarkan
epoxy
ditahun
duni
berpura
klopp
bertobat
liquid
have
henry
taobao
lekas
##itator
artikelnya
##plus
bayu
hasyim
sesegera
sikapnya
##embar
spin
andal
pesepak
ditutupi
kuasai
tenun
##orida
pergeseran
menyertai
hemoroid
##ovic
bertingkat
terkoneksi
##alannya
berkesinambungan
##eae
##но
kejauhan
gsm
berkor
injeksi
kediaman
perasan
fee
pembelinya
##obot
atta
##ampirkan
pekat
diidentifikasi
##imer
ketidakm
finance
nantikan
merintis
ei
kalsel
dahlan
pemenangan
websit
kearifan
ketidakn
##abang
mapol
storage
penyair
aka
dort
seluk
take
meteor
menghisap
ann
##atiga
anak2
jek
91
benz
##aah
frustasi
berpaling
mendongkrak
pertanggungjawaban
menentu
##entuhan
save
kendari
berambut
berpengh
menjelma
kebis
administratif
berjamaah
terlaris
menganggu
ijo
arke
menimbang
##esco
mirror
##ematan
mengeksplorasi
lop
pengisi
bordir
dimodifikasi
mengadu
##cher
martabak
gazebo
berselang
kemoterapi
reks
mary
edge
caesar
citi
aktual
##ely
sekur
menerjemahkan
sekumpulan
merealisasikan
##elajarinya
gorden
bendahara
##oten
keseluruh
doakan
##angkis
gall
murai
##chain
##ikon
suntikan
last
ketawa
##inyur
ulu
males
matius
jef
alang
proyeksi
dslr
times
emo
bhay
kinerjanya
watak
angs
##alikannya
irlandia
ngap
supply
aliansi
resour
720
tjah
memberitakan
##arth
steril
mengabdi
penghormatan
pemakaiannya
sejujurnya
fib
legi
ptk
proyektor
berhala
perhatiannya
##enia
menularkan
diesel
visitor
safari
##ejoss
subi
shang
yogya
ndak
mente
pemecah
melek
exp
sv
ranking
pog
ambang
hafal
wonosobo
bega
##aff
alim
terangkat
memblokir
diol
adzan
##gawa
objektif
jagoan
penyis
martabat
seruan
##awak
##umus
jua
##edang
pemberontakan
berkeringat
termu
diunggulkan
yag
jalinan
restu
##title
bully
adidas
pemindahan
##uruskan
oposisi
hots
printing
hallo
hud
kehang
##ulina
pengawet
##tom
##eberangan
mengambilnya
freel
##irin
pundak
pertam
antena
dimul
duo
spread
adventure
side
##idap
naiknya
ngerasa
cacar
tombak
menonjolkan
##bor
invent
##rod
gugup
sampo
kantoran
##amon
telor
##latan
##ampuni
spesifikasinya
memeriahkan
mekkah
dortmund
##rist
189
omong
inchi
megawati
##een
keset
##edri
peril
tidung
cotton
cryptocurrency
psm
feng
dilingk
relaksasi
mpv
diblokir
diperpanjang
menyoroti
parahnya
followers
rembang
segelintir
deteksi
adakan
pendidikannya
wap
ditebak
##unction
perpajakan
tersedi
dikehendaki
donat
##istis
bapaknya
##kow
##bed
ple
ketertiban
pantangan
biodata
##cam
fx
menafsir
kerind
gantinya
sticker
##verter
siswanya
mempraktikkan
progres
filosof
edition
##lasifikasikan
macan
165
laksana
idi
nop
knal
menor
kerang
terind
zak
keriput
##titu
malamnya
##pretasi
vakum
##hil
menjalar
jh
becak
secangkir
kadalu
tamat
arth
transl
sisinya
eps
recovery
mempekerjakan
tpa
sosis
butter
rp4
##okong
tekun
capaian
##ometri
associ
##show
##eberapa
exch
##alisis
direct
keterkaitan
galaksi
taurat
tuhannya
preman
hent
proporsional
##cat
anth
science
##ahar
##ople
survi
lalai
diuraikan
nara
1986
##screen
hei
aksel
instruktur
estrogen
flush
##ampingkan
##akers
pebalap
zina
keseri
##obolan
cuplikan
dibungkus
baitu
nawa
sumen
nic
berlindung
diakhir
meni
melunasi
knalpot
bersandar
alb
monas
abdi
number
##namakan
sempet
mendunia
salatiga
darahnya
##opter
##hentian
sinusitis
##andi
kepon
##etnya
bei
khal
denmark
ziarah
shu
##fs
anna
swe
brit
berkurangnya
meramaikan
pelayaran
three
##ogoh
got
berlin
##engkar
senayan
##orogo
kasual
likui
lumajang
axis
cerai
beruang
##anangkan
kesetiaan
sentiasa
based
signal
hmmm
disimak
perebutan
##zhou
bertebaran
mw
##untukan
##orf
insinyur
pinus
ambejoss
influ
resist
spasi
lucky
dibesarkan
keharmonisan
dirubah
ovari
##acik
fikiran
##ikul
##umas
ferry
kirinya
##hone
nuh
indomaret
dihancurkan
1985
paran
conte
barusan
coin
sdh
sindrom
##hul
dd
mengimbangi
##enge
pangandaran
##wajah
dikatakannya
costum
teka
seung
starter
steve
berdampingan
shoes
terjawab
sosialnya
##obol
rahang
spbu
zombie
komoditi
vr
1988
susi
uretra
penyelamatan
kelakuan
terbayang
bercita
pelun
spirulina
menyasar
diperbarui
kapolri
##otbah
skand
sepertiga
kesenjangan
##ple
tandanya
diusahakan
perseorangan
##olitik
secret
mengom
sedunia
permus
##inus
menyedot
dituduh
fram
pantainya
kependidikan
meneb
aduh
ratna
generator
##wara
reksadana
dermat
lol
memerah
credit
refresh
koordinat
fasilitator
kewajibannya
membandingkannya
##migrasi
kancah
keberagaman
sesuka
terjadilah
pengasuh
##kap
anu
##utik
acaranya
mistis
tepuk
keberk
berskala
##orrho
berselancar
##irup
##zzle
##ultanan
pemberhentian
andromax
reksa
vide
menyeramkan
##unium
kripto
letusan
bersentuhan
kardi
koni
##amater
ummat
ketidaknyamanan
substansi
santa
manja
##fiah
koh
teknikal
##ungnya
kangkung
ronde
chin
vul
gadang
mengintip
bla
dipicu
komisioner
obati
menyu
sutra
perputaran
kehangatan
tekh
1987
ft
penandatanganan
gilirannya
memandu
osaka
menekuni
##engaja
sabuk
pemanas
osis
rizki
tambak
padam
berkarakter
korbannya
##ikil
stik
##echat
terpuruk
gengsi
didaerah
benef
##hurt
##didikan
mengubahnya
verbal
##opause
menganut
pengaplikasi
##comm
atik
spray
push
terharu
asep
##tart
bertengkar
bersuara
magh
##imuti
meramp
dikaruni
memerankan
btw
bettors
pengaduan
panca
pendapatnya
transparansi
##ocokan
idr
kyung
yoghurt
kanvas
##ors
pembaharuan
year
menggembirakan
##ghts
mengakomodasi
##engka
makro
aksara
##rei
pendataan
didek
##elitian
menjuarai
ralali
##imbas
##onstruksi
heart
kea
pleno
brow
cimahi
##rick
profesionalisme
##atio
performance
monoton
kariernya
##owongan
diimbangi
corporate
ngantuk
##apang
tesis
berkon
syur
dituangkan
bisul
salut
screenshot
pertengk
ditakuti
baking
think
realita
##entari
sarah
antis
sco
pastor
##ungkidul
ingatkan
perempuannya
gaul
##rem
terkontrol
jangankan
mey
two
jinak
pupr
takaran
##getan
stakeholder
ponorogo
penasihat
ditir
##cript
sederh
pergunakan
##badan
ovarium
##67
berar
baq
situsnya
teling
pekar
kual
headset
sekelilingnya
##nk
mengatasnamakan
field
brig
peribahasa
datangi
##olaknya
lapas
##orot
membelah
uber
##hah
booth
degradasi
tapak
kematiannya
##anai
cour
boyol
makkah
menyeberang
enjoy
##elajah
intu
##apoker
suguhan
kadis
sekitaran
clear
tender
bertandang
##emaskan
memancarkan
samudra
berdi
cumi
fotocopy
sapaan
mixer
dpc
##roll
perbukitan
##arki
1500
##ters
industry
nyala
tehnik
kerusuhan
owner
ivan
subtitle
kapa
##visi
diskriminasi
ditangan
mencarikan
bajunya
bokong
gengg
ppn
menantikan
mengimbau
berkaca
1080
##ijat
##card
memakannya
airport
merogoh
ducati
viva
mentega
indrama
rais
penghematan
koridor
zero
nambah
##itnya
sangkar
ditekankan
suite
lukas
mara
maafkan
##estay
kepergian
dinobatkan
knowled
coach
fp
inspiratif
pgri
joe
p2
sebabkan
yani
keguguran
praset
edaran
##ombakan
##aphy
melambung
##core
flores
harapnya
comment
gusti
lemot
##efisien
jay
pemakainya
meta
1984
mencintaimu
ajarkan
##adah
##pons
##oyong
mengencangkan
gorengan
karo
##303
##68
menghang
##resentasikan
sepotong
grow
##agum
yaaa
luna
everc
##manan
##asati
menawar
berpenampilan
indramayu
##indas
straw
s128
ketul
mencintainya
hiz
semangka
khay
hendra
ketaatan
ditembak
pengobatannya
yakini
ida
##erial
validasi
##omunikasikan
puding
pembedahan
leon
##bih
##dil
##etkan
emil
pertengkaran
##eleng
kram
bolu
mengutarakan
menghirup
sell
##edikasikan
diego
##ime
dubai
pasan
qatar
penganut
homestay
penafsiran
sund
brah
diawasi
seu
##endo
##tualang
ketan
memberantas
wajahku
zoom
ditaruh
sumenep
anat
##amil
kia
mug
kocek
mendasari
##awe
cad
##ulap
ves
legends
siri
jt
dilanda
pamer
kelel
wono
pembeda
rey
##istor
mengupas
##asing
hti
cepet
##ashi
diingatkan
##chet
gunungkidul
mimin
##impung
##unannya
lumba
berapapun
##olongkan
sembunyi
nb
bone
telak
saingan
##zie
mengajaknya
memperbaikinya
adek
sketsa
farm
sudi
tanduk
nget
k3
dipertemukan
menguraikan
labuan
jib
##umpalan
radius
nikmatnya
penyiaran
dipandu
santoso
pemus
aziz
membekali
##acaran
konsumennya
melingkar
firef
dipecat
##fon
pemudik
menggarap
##antul
pelestarian
kerbau
##iloma
##adaya
bpn
##iannya
##akas
##osk
mekah
terkendala
##endikbud
bridge
aami
mnc
dun
namaku
beramal
a5
guest
gian
adem
hape
##ekaran
geologi
mub
menusuk
direktori
fikir
kebodohan
maritim
people
##ikis
##ingkuhan
msi
kristi
bulatan
tiroid
mencurigakan
blockchain
moz
higienis
##lumi
ekuitas
##isma
berbunga
classic
kecok
sinerg
naluri
football
dipikir
haw
sekeluarga
supri
wood
publisher
berdes
##apian
academy
budha
susilo
riv
ketel
loyal
##adik
hobby
waw
jessi
fire
ditata
berwujud
camping
boyolali
tersingk
##rap
nash
##andan
##liannya
merangkak
risk
lada
brush
mintalah
##obos
fleksibilitas
ditanamkan
bugis
keputusannya
civ
sariawan
##gagung
memo
lux
header
menukar
ketidakmampuan
mengurusi
sushi
diform
metodologi
deliver
jenius
##ер
##cake
jendral
##yon
bersedi
##ayati
ayunan
tanahnya
teki
deputi
pandangannya
penisnya
menyadarkan
berpacaran
menanjak
##ukseskan
tersaji
tisu
hosp
umi
lobi
terinstal
hotspot
kontruksi
mangkuk
menyapu
semacamnya
disengaja
##cul
##araannya
undi
huni
pengingat
seorangpun
kolombia
detox
maksi
temanmu
parang
butiran
terbunuh
denah
beranggotakan
marg
##esannya
pengamp
diuntungkan
fluk
lawas
##fd
biasakan
loe
azhar
wu
##ibi
likuiditas
tulun
kenang
syaitan
gamp
embel
uefa
puj
##31
zidan
##amnya
knowledge
gaza
murahan
##qwa
wargan
terpesona
tersedianya
berkarir
tre
representasi
ngapain
sholeh
sial
##len
bertemakan
adikku
menta
wni
rusaknya
tentulah
##aruk
bugil
diberhentikan
digandrungi
aktivasi
denyut
hardisk
##enah
dipaksakan
chen
torsi
koroner
achmad
colo
korelasi
turn
git
nurul
amplop
biarpun
##iller
asp
prasmanan
kerinduan
antonio
##italisasi
ppi
dikti
diterimanya
alternative
##lung
ulat
##ilap
kontri
vitalitas
memanggilnya
diinstal
##industri
adab
bg
sumbu
penggabungan
dahi
istilahnya
gn
kla
##iwa
mempererat
liku
pengidap
pogba
sidney
##kal
timah
mimpinya
prabu
kilo
maunya
journal
melemahkan
bermus
videonya
berkecimpung
jepret
dihimpun
merangkul
tiki
##bir
paginya
meninggikan
muas
citar
hop
gunting
kuis
##ilin
ticketing
purworejo
tulungagung
##fal
mx
hengkang
mengunyah
dialihkan
##efek
mia
flav
kesalah
seaf
pimpin
perkenalkan
##tia
serbaguna
maulana
terarah
penyempurnaan
##cium
deep
pekarangan
105
ngi
teris
menghimpun
##trad
diving
ampat
mesinnya
syarif
##tinggi
sepadan
##ematis
botak
##peti
posko
hotspur
eyel
mengobat
##artment
akuarium
##royeksi
finger
electronic
bont
memberdayakan
##jono
ukrain
tatap
berurutan
engga
empati
charles
keluh
terbaca
##bui
##eder
berbahagia
mindset
programmer
wb
educ
##entasan
##wari
pent
hektare
bril
##ekuensinya
##gaman
salaf
##tabilan
hospital
biografi
pedalaman
mukena
laun
evakuasi
emir
kelal
palace
##silah
akankah
menag
pembenahan
liur
terkunci
novanto
pratama
##reditasi
fermentasi
kepalaku
##cks
modernis
diaku
jangkrik
borneo
leo
bany
ulangi
smkn
kembalikan
mysql
mengerjakannya
##epet
pemutar
proklamasi
hihi
terlind
diperluas
menegur
nyoba
mengutus
superh
ditransfer
peris
##bca
brim
dub
inap
kandungannya
ases
munch
kebisingan
laskar
progresif
sastr
bungsu
membentang
minder
tran
##obia
tersebutlah
wahy
menjalankannya
##come
otaknya
##station
gulung
walet
koma
mengkon
kesultanan
##kum
dangkal
serpong
puri
mastur
menindaklanjuti
##itatif
1982
machine
ganja
##impahan
moga
##opoli
##ongo
our
pertambahan
cengkareng
mengabarkan
evercoss
binaan
##ukaran
fahri
advertis
peninja
jug
##oksida
pengoperasian
cub
modalnya
lev
##erol
opera
tandang
penyusun
tbc
arc
kerutan
karanganyar
flora
spi
##ulas
tikar
ahad
darimana
pengikutnya
##olla
abg
keaslian
firefox
deadline
##isy
abah
##ahagian
##bian
yudho
dora
##ingku
ecart
satpam
perunggu
mempublikasikan
##ekw
paral
terwujudnya
mencalonkan
mengetuk
##iten
kewar
ketelitian
yuan
mutakhir
dibacakan
berpihak
meras
kua
##arawan
mafia
struktural
seafood
disentuh
a7
omset
##arn
lingga
dens
payment
lehernya
mendistribusikan
berdo
resepsionis
pengunduran
##point
artistik
digerakkan
thai
kekaisaran
sepupu
iz
##enggalek
danamon
kontrasepsi
membalikkan
wei
ciamis
berkem
##erti
ditumbuhi
membersih
graph
bc
##ikasinya
tax
diaktifkan
angsuran
peru
jugak
didownload
petarung
##zel
##warsa
menyaring
##ontong
kesegaran
ribut
kesalahannya
pemat
kebajikan
skr
kesemuanya
nick
umatnya
##blog
##dl
##sg
costumer
sampul
##imbun
ups
persendian
radik
mengeras
dikandung
oi
sepeng
memonitor
informal
geser
subianto
zidane
kancing
##brid
aamiin
stay
libido
perbuat
##tuasi
force
keseriusan
kerontokan
tertuang
fisk
marsh
imper
##tihad
##emil
benarnya
##guy
lgb
vall
sepuas
bird
penganiayaan
kelahirannya
##tial
javas
interpretasi
autom
fiqih
katarak
probab
kerupuk
tertahan
##100
dilema
##code
trenggalek
##star
percintaan
ketidakpastian
seen
manif
##iaan
itiner
bj
kontrakan
foredi
keri
diperkenankan
dimanjakan
regu
##ontaminasi
sistemnya
jkt
##ekaragaman
ve
##eberkan
devisa
lukman
gado
##inannya
east
isk
rotasi
peninjauan
cookies
vegetarian
##49
miras
penyum
perfect
##alasan
##inum
##ziarah
##uhu
permukiman
gent
trig
dikelompokkan
fortun
dikor
##osom
kabid
octa
petak
menyuarakan
soleh
##alai
sudahkah
dinyanyikan
percayakan
voice
klikpay
##parah
pengarahan
superior
db
nutri
keruk
##tel
pemeriksa
terjer
miris
fond
report
dicont
rampung
##rise
stimulasi
psi
menopause
pakaiannya
keindahannya
unggas
pencak
yong
takjub
mengend
agensi
berinisial
chem
cort
meredam
##beri
sleep
penumpukan
mikr
chips
matras
menstim
penyumbatan
dance
kantin
kemasannya
pemotret
menguap
zah
doi
240
bersedih
luarnya
##walitas
lc
ryan
aktivitasnya
see
version
tamasya
chair
##incangkan
menangkal
bella
pungutan
teduh
importir
##etin
memudar
##injamkan
brimob
ain
koruptor
##icy
kehendaki
##oversial
##gau
mencontohkan
menyayangkan
##mud
hybrid
flashing
##angkatkan
rekanan
konsum
mich
terkaya
aspir
##opos
serap
pramb
tekstil
merawatnya
##galkan
victoria
wit
##iad
serigala
fid
francis
dikontrol
menggeser
##ganisir
purbal
dagu
nova
##isipkan
mazhab
qualcomm
disebarkan
aquari
genggaman
pedih
##forex
penambang
adha
fitness
elang
sekuritas
bengkalis
guang
virgin
kerasnya
##ents
wonder
##prise
sandwich
magister
##lad
##mall
##fav
pij
dibelakang
##grafi
##atr
cru
rini
minggunya
seram
##ни
bpbd
##osinya
##impikan
trendy
hayati
menjaganya
predator
klimaks
mengerahkan
kontroversial
krimin
dipaparkan
blaz
upt
1983
##alengka
liberal
triw
##ties
usang
##oller
bbc
teor
pergilah
small
##ecahan
invest
itinerary
##bangkan
dicantumkan
dedikasi
disinggung
performanya
##lig
pelapak
mempelajarinya
adrenalin
etis
##idenan
##low
membenahi
chu
kasusnya
##leting
berkeluarga
hentikan
##ussalam
magetan
piknik
bolong
razia
appl
persel
peralihan
bercahaya
serunya
mengupayakan
menipis
istanbul
bts
pengungk
sumedang
##ensia
sentimen
menamp
diganggu
aqua
eyeliner
berangsur
dod
kambo
rewel
dear
##cius
gelembung
bergambar
sungguhan
cargo
mbps
tetangganya
##iawan
terpikir
terealisasi
mesra
##ukupan
merugi
##taz
##ops
luw
harv
layout
cluster
##inggir
menjaring
kemiripan
##kul
rencanakan
##oharjo
gamers
rober
256
menyelesaikannya
##ukuhkan
##empit
beroda
cukuplah
klikbca
nit
motorik
pengerja
running
sajakah
abaikan
##has
simon
rubah
memutus
##bukanya
##olin
sanitasi
perawatannya
khilafah
chall
mengek
aerob
pembekuan
pemod
kelor
kalbar
##atria
hanura
beradu
##usianya
btn
patch
##arep
kepr
##ather
terangsang
waf
bow
mengemban
bahari
menafsirkan
penyisihan
musta
##ls
desc
sean
memerhatikan
##fli
kuatnya
berimbas
austria
pengolah
vlog
narap
##elor
bpd
mandarin
diamond
##mikan
badung
##tekan
dama
menyia
##entot
jumbo
kesehariannya
135
dilapangan
bunganya
lha
bpkb
simpul
anonim
sufi
jilid
rani
megap
##jt
##atin
##isiplinan
##ebu
hartanya
berkeli
salman
ahlinya
yudhoyono
nafs
mengusap
backpacker
absol
memberlakukan
perseku
portugis
medical
##suk
berteknologi
gulungan
ditiru
yur
menyangkal
stimulus
reader
begadang
ct
##andingannya
220
condi
konting
grid
kominfo
jadul
penggila
econom
purbalingga
luangkan
pengun
kids
lintah
tabu
setr
penyihir
meros
##atuhan
merel
memompa
berkilau
desanya
tirta
ulangan
tangis
azab
tangkapan
##fier
amatir
##bauan
terowongan
sneakers
perpecahan
cis
clicks
heri
pencal
terap
tertuju
bersumpah
esai
mengagumi
firmware
sistim
heter
kamboja
compl
smo
ukraina
belia
dikaruniai
menebus
panasnya
arch
dibawanya
esdm
cookie
pengeb
drag
keliatan
mohammad
ketempat
siwon
##ompakan
urug
##amida
risih
sewaj
mengobatinya
##ention
##ро
campak
##wave
riasan
fiturnya
##otere
##masalahkan
trainer
cia
mengkombinasikan
uny
sheet
##pus
insting
tercapainya
dikaji
freez
encer
mujah
eco
muji
purna
geo
##jelas
ditempel
proxy
kapitalisme
optic
123
oz
pengering
benar2
##asp
carol
administrator
berdurasi
permasalahannya
##wono
ipk
##aninya
berebut
185
perkakas
ventilasi
pembukuan
menerapkannya
jump
hidrogen
aqidah
minati
kemiri
tumpah
palet
ditegaskan
shanghai
bibi
nos
perdata
voor
xiao
##ekuatan
tog
menantu
##ollow
##okat
memangkas
lidahnya
ford
kecakapan
dipad
uas
kapasitasnya
canda
##hol
membersihkannya
ginseng
kontraknya
999
cilik
retribusi
##char
irisan
maksiat
kegemukan
pencitraan
bantuannya
keanekaragaman
habibie
##mint
##oleransi
try
casio
uda
kalium
dimus
sharp
penghujung
merced
bsd
##okkan
nego
bermodalkan
hihihi
sanak
##uha
berbadan
tahi
menjahit
bijian
plur
imm
##oder
dipenj
kalib
terangan
kolonel
penghuninya
dimulainya
ratio
##urnian
109
branded
zip
narapidana
perkumpulan
chapter
##mus
penyet
rada
oscar
andy
penyar
pelukis
bater
mencampurkan
kamil
##ampton
##imbar
memilik
dikemudian
epay
merantau
blanc
115
##ended
normalnya
reality
tony
parcel
komplain
##uluk
clickpay
vokalis
cadang
teran
miom
dashboard
rolex
dioleskan
sosiologi
akuisisi
isterinya
bulog
berkeliaran
cus
federasi
yeh
spr
##hie
collection
##irikan
##amarkan
##print
101
mikroba
tonic
ry
exec
kepen
lotere
nons
mencuat
ltd
##emak
manik
##omm
punggungnya
##ville
pemko
little
pucuk
merasakannya
vps
zte
deterjen
pembangunannya
##fud
regresi
blind
adh
kera
digarap
##qiu
##tub
lgbt
smu
mewujud
pengunjungnya
salak
4gb
pemadaman
##antui
suasan
roket
a3
terpaku
##etail
##ет
diana
##mann
perwujud
banting
##kn
##cian
##watch
membebani
suarez
##ianati
konstruk
kompresor
##elaskannya
fals
kacangan
chick
eleg
berisik
wabah
membidik
masturbasi
##indang
##owisata
seberat
febri
suster
##andasi
##istry
212
nitr
kedutaan
lud
##usk
kembalinya
lazio
bahasanya
dps
jagat
##width
trick
##andangan
tubuhmu
tengahnya
dambaan
bhayangkara
terlindungi
panj
##eci
##favorit
sweet
javascript
ira
sepekan
otentik
berlapis
##omodir
kosakata
munchen
menaikan
##loid
thread
pantatnya
terfokus
pelumas
voc
penulisnya
butik
kelam
exchange
tanggungan
##atifikasi
##esium
meminumnya
##aking
zone
agregat
angkut
mungkinkah
dipasangkan
gembala
membasmi
jessica
bukaan
presisi
##geria
##alakan
membujuk
smith
pencetak
cleans
hyd
pemotretan
minang
saudaraku
activ
##arasi
ternate
glow
##ils
##bong
unbk
mainstream
kepekaan
bw
ngawi
diulang
dipukul
##iris
jasanya
selebr
gha
setapak
canggung
rd
menolaknya
kedung
swadaya
mengaji
akselerasi
migrasi
sunyi
lemahnya
moskow
bertaubat
kustom
##wis
##sue
penggalangan
tragis
harun
##royeksikan
nemu
dirumuskan
fern
disamakan
##oon
ngeri
effect
yoh
interval
dialokasikan
ancol
andri
##abor
wisma
##pb
##elia
pose
persekutuan
close
digolongkan
kompatibel
##uratan
militan
kusen
berkekuatan
majalengka
fiskal
##sd
##nus
pemros
##ucon
##sch
bacalah
berpendidikan
beranda
alpha
##zet
shampoo
mengusahakan
honey
fol
sunrise
kematangan
strawberry
##ingya
kebel
baqarah
juz
brokoli
terhalang
perbanyak
cher
teorit
menyalin
building
tercemar
oce
penyuka
brigjen
bergo
dinar
komputasi
right
##entian
akidah
informatif
baitul
blank
almamater
much
kelompoknya
arahnya
ahm
##allam
jubah
panasonic
##jung
##imia
memperkecil
bahwasannya
reklamasi
##hin
##jik
petik
berilah
##eksual
intro
selai
fauna
prambanan
##fing
gowa
##vatif
berkwalitas
hib
dialaminya
kaligrafi
ato
panji
menendang
easy
kepopuler
kawannya
multifungsi
kegelis
advokasi
sewajarnya
pingin
girls
mv
manu
sebutnya
lincah
punyai
terkontaminasi
tegar
##nover
dananya
ngopi
telegram
sulung
penanggung
glu
disewa
juanda
##ebatkan
labuhan
ibar
podium
abdurrahman
ketekunan
bangunannya
nugroho
##tb
berbulu
candles
ful
swan
kontingen
penasehat
##ghan
benefit
dukuh
diwarnai
sisir
pejalan
otonom
nyawanya
mengatakannya
ask
rank
franc
tos
cla
shift
biang
##ference
alexa
##ucut
kelez
habisan
itik
##lamp
meradang
##isikan
terbarukan
jengkel
nahd
##karn
penca
karung
domisili
pencalonan
tape
stef
berair
fotok
marvel
awards
##mes
dilontarkan
##zir
suri
malaria
detektif
angeles
orderan
##64
perump
belaj
penyalur
oranye
##ihara
kebobolan
keberkahan
sepengetahuan
##zali
diikat
##yos
thn
iris
manipulasi
lelucon
memposisikan
##ansa
helik
eric
peraih
politis
##ogan
competi
##finder
sepulang
##ijauan
lus
##engs
##fid
uruguay
rohingya
##epati
dibebankan
##rent
ianya
##etar
kendal
membangunkan
mempertaruhkan
racikan
kick
по
explor
mancing
europa
menerobos
diinf
sense
##urance
pungli
mencurahkan
ditjen
pengungkapan
tarakan
menjulang
berz
pudar
##urik
batavia
function
peser
marina
guy
mike
etnik
robek
kerukunan
seenaknya
rematik
penjualannya
kebal
sher
cantumkan
pacitan
sedini
natuna
menghangatkan
lalang
terukur
migr
dipul
menas
berkorban
puber
##aluannya
silikon
kedisiplinan
155
four
helikopter
paskah
arwah
amandel
organizer
kelalaian
penguat
shaf
jami
eceran
membukanya
memaknai
pengawal
america
dibikin
pileg
menundukkan
cid
diusir
melel
dalih
yuni
politiknya
penggalian
tenar
pecandu
wudhu
##oyo
mekanis
sayangi
sorong
meletus
##aini
timbal
##aptis
fuji
terstruktur
babel
berjiwa
rgb
##web
pask
0813
multitas
penampungan
##antina
dewata
arisan
mengalirkan
memperburuk
selandia
merosot
##andung
sepintas
mengarungi
perekrutan
merangkum
pecel
hazard
kotanya
sav
frustrasi
brewok
##aib
mengingk
##jab
mercedes
syahr
musiknya
##gd
indukan
##uce
merenung
##encer
##bility
perselingkuhan
dipertanggungjawabkan
celcius
pemekaran
alumunium
diren
##irm
libr
muz
difokuskan
##vey
flex
##endek
begin
tersambung
persebaya
teologi
manggarai
disebar
politikus
bagan
haris
kulakukan
##rot
whe
jkn
##elon
santunan
diimplementasikan
kataku
sedar
berhari
organis
##waku
##unge
tumpang
##gali
dapati
berpergian
lawang
websitenya
vera
##aksir
jogging
kliennya
pw
malaka
pvc
doyan
##yalir
bandwidth
aqu
metropolitan
terkalahkan
bernanah
##apura
1x
kno
sepen
##wahi
katak
dividen
usg
kerikil
laci
ketapang
sederhananya
every
bike
mahoni
teoritis
##galan
##250
menanggulangi
birahi
nug
kesesuaian
##andalan
penuntut
bih
kelestarian
##ujan
bajo
##dirkan
rif
kuba
##isensi
couple
##sit
candlestick
##tos
##ipop
##iho
##eyen
mimbar
bangkai
##uarkannya
teman2
mogok
##cas
##cut
##sif
##ovi
shak
anting
semu
diadopsi
uz
koefisien
dikec
vario
memanipulasi
kemaluannya
masif
##utbah
feses
qura
##ilir
##andingi
##aler
beresolusi
penang
banderol
imlek
membukukan
christian
perwujudan
cardi
rafting
baunya
gameplay
103
##right
corel
dicat
tone
wisnu
aus
find
wonogiri
##ilmu
meraba
arjuna
mengelupas
pensiunan
##ilati
##umentasikan
budiman
cagar
##ibaratkan
blur
pump
##tuhnya
keteg
##ework
tersinggung
1920
korang
sapu
penak
##ongg
avi
perburuan
menghias
pintas
##hr
bergen
touring
baz
barito
setya
ekspl
pdt
tikungan
rooney
##wanto
efektifitas
##je
menginvestasikan
sanggar
##ersil
pengambil
cepatnya
resikonya
##proof
##inata
florida
cukur
##xt
suit
kantuk
mempres
kiprah
sanad
pascasar
pertentangan
pernak
traveloka
ferr
##asiakan
mencerna
berkerja
geli
175
##udu
terperinci
sekar
cermati
timb
troto
monaco
vita
fpi
visu
##elle
##ск
terdi
pesertanya
luntur
proporsi
##bourne
akus
vinta
fisip
hurai
disug
berseb
dijerat
1974
nin
##aringan
kopling
andalannya
##acunan
terhadapnya
hina
mesum
mengharap
folat
##arengan
##ganegaraan
syirik
kodam
cran
piksel
battle
charging
##itif
pelemahan
ener
retro
gudeg
##bes
tabir
djarot
cms
##ль
##71
meth
kosan
keunggulannya
draft
kegemaran
jalal
##akimi
##anjiri
digagas
caption
ending
##sn
##istrikan
hostel
##ebohkan
##daulat
##tage
##uro
kapitalis
pesaingnya
lepaskan
tuhanmu
gadai
diklasifikasikan
berdebat
##dis
dimasukan
menyin
skandal
fadli
rk
kepres
##antapkan
ditek
scam
regulator
##oti
phy
perontok
a1
diikut
nurdin
kepikiran
berabad
mengalokasikan
donggala
mengisyaratkan
infonya
lekat
adak
pascasarjana
##iha
scor
dibeberapa
belok
condong
##loy
baya
blazer
penyemp
nominasi
agency
cro
heels
sederet
siber
pkm
give
akuntabilitas
##luaskan
##phon
dapodik
##arahi
drain
dibintangi
jajarannya
taraw
##house
##ampungan
seutuhnya
aris
##liga
panwaslu
programnya
##rix
memverifikasi
tertim
radikalisme
##apitul
tersirat
multitasking
tidakkah
load
ambi
menegangkan
seperangkat
memprioritaskan
bersusah
##embakan
##eger
polig
aturannya
delivery
tito
relevansi
gub
grey
##lem
berumah
soul
##reas
##jaz
samosir
dicurigai
restor
riya
society
ditindaklanjuti
afghan
dikelas
karim
##bubur
berry
pemangg
chandra
letkol
yasin
##mawati
puzzle
spider
timun
ortu
heli
testoster
##angin
aromanya
menggenggam
bersungguh
munaf
jauhnya
hurairah
keracunan
vali
terhapus
penguc
berked
##arangan
merapikan
mrt
komersil
##talgia
1981
terigu
melampirkan
##angkasan
didiknya
hentinya
##usukan
##andaskan
pengerjaannya
##tice
pemuja
brut
window
##otori
hamzah
samu
dijemput
warganet
panutan
migran
inspektur
kewalahan
hadiahnya
##inir
berlatar
##menya
halamannya
testis
author
kalkulator
meninggalnya
mikros
##odorkan
balance
kane
disewakan
topping
vulkan
pendorong
favoritnya
umm
only
perhari
##iraukan
gumpalan
prilaku
tgl
ikhtiar
heav
cum
acp
kemanapun
menggiring
pagelaran
brilian
kurasakan
nigeria
infini
mtq
melalu
vintage
merebus
##oret
sicbo
sesudahnya
##kali
membal
domino99
##anty
vik
amster
superhero
elok
polemik
jarinya
kekompakan
qurban
embrio
fatimah
oat
dikira
##impahkan
sigap
dikenai
##odam
mukji
pmk
ngentot
##gil
ons
memuliakan
##ukasi
mahfud
##ulikan
dikenalkan
mengecil
factory
triwulan
nip
mengutuk
probabilitas
gin
mukanya
ich
keberlangsungan
maghrib
bertubuh
nisa
##odie
build
pemateri
roboh
trotoar
mencairkan
ritme
##eksikan
##empang
##industrian
amsterdam
eva
##lion
##hae
kartunya
janj
mempraktekkan
bersil
kijang
steam
##utangkis
bagiannya
pemerintahannya
living
##jm
##dot
jengk
##tuti
penjagaan
##otak
penelitiannya
kusuma
##tritis
keikhl
sbb
berkisah
penida
cerdik
menyesali
menew
sprei
diterangkan
belajarnya
replika
bersikeras
runcing
membelikan
mengupdate
##engkan
tumpuan
pempek
dihal
dinamai
cav
lembur
memesannya
scene
ditemukannya
leaders
##opot
memprediksikan
lisa
##gani
pemberontak
hadirin
penyewa
penolong
berbenah
menik
langg
mendambakan
restart
##umsikan
menyewakan
diantisipasi
lanc
konsekuensinya
1979
##lip
perduli
perindustrian
##tualitas
ketum
strai
kukus
##mir
stnk
variatif
direalisasikan
dilingkungan
glam
diag
kegelisahan
prag
##ewasaan
pallet
bentang
serem
cnn
halte
##epatannya
peraga
petualang
hed
direm
berlangsungnya
place
meluruskan
##oboro
##energi
bisanya
hyuk
##akiman
cucak
ultimate
pawai
come
experi
pembacanya
npwp
pendekar
lesu
propa
bersebelahan
psk
aktifkan
membandel
dieksekusi
##46
johns
prestasinya
dipersembahkan
shell
##ohongi
kadangk
tamunya
pengaplikasian
makasar
dibongkar
##endiri
terbayar
plant
jibril
##insa
menonaktifkan
mengimplementasikan
dateng
##larasikan
toefl
renungan
dra
##001
bernegara
sweater
yos
battery
##wer
indonesi
peer
gerah
112
kitty
waspadai
##yaku
luwu
baut
estate
disekolah
silabus
gaple
##apitulasi
bundar
##untuhan
perkampungan
kemenangannya
analy
hlm
diungkap
##ны
berkutat
wasallam
berbintang
##pk
memberanikan
mulyani
menggangu
##met
umbi
##ariskan
membunuhnya
keriting
advokat
ssd
brunei
pegadaian
dilibatkan
berpe
college
lautnya
rend
menewaskan
terpa
dipersil
pandeg
udin
tertimpa
mengkilap
menyadarinya
kta
##usahkan
##tc
mensosialisasikan
joy
bitung
radhi
prasetyo
kharis
arahkan
kecuri
unpad
ski
niche
bebernya
##ulih
sunat
meriwayatkan
kemungkinannya
pdb
malioboro
##inyl
amien
kualitatif
dengk
membeberkan
kesederhana
wakilnya
menempelkan
pantun
matematis
berlemak
diploma
menggendong
hajat
ether
matikan
diagnosa
lonjakan
##intaannya
pembi
##ambangi
usman
kutai
menyeret
bergenre
berbondong
##awahan
pools
tuba
coc
split
menjengkel
##elnya
##ohor
pank
tipsnya
jengger
##banya
mengucap
##berat
yudi
khasnya
melbourne
meresmikan
rendang
motorola
epil
finis
menghidupi
mahasiswanya
650
108
obyektif
ketim
##tric
iy
diperingati
sahabatku
##ahulukan
на
memantapkan
0812
##irausaha
omongan
penunjuk
nina
solok
andrea
terit
nyanyi
pendiam
murka
mencermati
mengunjung
bermitra
subsc
terpuji
krem
##95
terpusat
selayar
##upport
pansus
meizu
fotokopi
propaganda
plak
poc
santapan
##omor
dns
##hian
nangka
flip
##yikkan
yunus
##yaki
eyesh
maroko
bersertifikat
undip
membungkus
##edulikan
saring
menguc
menginginkannya
yakinlah
idamkan
##ghter
modernisasi
ente
acuh
miui
curam
presenter
doanya
aba
venue
risau
##ganjal
hakekatnya
perumpamaan
gob
centang
garda
flagship
selembar
##idupan
setingkat
btc
alaikum
mengid
motivator
relations
dibalas
pandeglang
kav
trial
piramida
berkecepatan
penamaan
##olanya
rabi
hahahaha
##apat
dike
linda
mencegahnya
memikir
##organisme
ctr
##giannya
agust
sebagus
terjerumus
use
terakreditasi
##ongsong
keping
mendahului
piagam
##jukkan
eleven
##inson
pemuka
hamid
##umo
memanjat
oki
dinanti
idenya
gib
qa
##tigo
xx
##yok
agro
pemalang
produktifitas
bach
##belak
sinkronisasi
retina
pesepakbola
menjengkelkan
berduk
menetr
##ocokkan
dikisahkan
ampli
menayangkan
iqbal
pengemis
resistance
sepuasnya
memandikan
eyeshadow
mangsa
oste
bhakti
sergio
##epotan
teruskan
imigran
kasta
puing
##rejo
keutuhan
iron
wide
kesetaraan
simpulkan
diangkut
kicauan
round
102
##yama
genus
suksesnya
pemakan
konduk
merenungkan
quan
##arsi
allian
pall
##aaa
argumentasi
h2
##emprotkan
##wawancarai
##losan
nganjuk
nabati
1966
skot
##jin
##ipto
menimp
k2
##awah
##opr
trailer
ceng
kapuas
deskrip
choi
dipake
kencana
keponakan
dalang
##apy
amar
##tsp
cikal
wajahmu
penyayang
southampton
ara
pemrosesan
##alip
sz
playstation
##то
pesannya
##butkan
syuk
ati
karma
mengasuh
negative
##elaah
mengasyikkan
slimming
valas
##ipkan
axi
##rai
frag
2gb
cemp
temanggung
pms
pewaris
mempresentasikan
genangan
##dn
kerahasi
kesannya
menumpang
mengintegrasikan
babinsa
dipanen
pancing
poker88
amun
##rosa
disinyalir
gamelan
rice
palm
pencuci
army
tiram
##alsuan
prasangka
diberitahukan
mainten
mengantri
kejadiannya
cengkeh
##mil
pelari
pede
##bb
choc
##anium
suasananya
cond
##esioner
va
designer
pencah
afi
tuangkan
##ebur
nyambung
simbolis
pejudi
cord
##kt
valve
memungut
true
krl
m3
rosul
mukjizat
p3
ramp
squ
maling
##uters
unesco
berkulit
##aser
justin
meresahkan
antisep
orbit
agunan
##wali
disembunyikan
alt
fondasi
dosanya
menyiarkan
dibek
##ordan
##emparkan
soh
##omah
keny
disitus
pertan
implikasi
tuntunan
membolehkan
irfan
stro
berbaur
kumuh
##anga
bersarang
laten
erupsi
kontestan
111
##erson
county
##rum
penyertaan
napi
koko
omzet
dhani
dipamerkan
##alih
reds
samuel
musti
dijabarkan
ardi
##365
ironisnya
##tura
brain
berbarengan
karimunjawa
jadw
exe
##rey
dipromosikan
pembelaan
isikan
disela
pistol
kerinci
##evolusi
##negara
pesatnya
mengendap
vektor
bercakap
vespa
prakteknya
partisipan
##enium
disantap
maryam
maker
need
##enas
##karena
kiblat
tusuk
penembakan
firda
bell
berir
penahanan
banteng
fatih
zamannya
mazda
perbulan
##ubsidi
rr
jebakan
afghanistan
ngeliat
rekapitulasi
founder
plasma
sesiapa
jagalah
elegant
situb
feature
##capil
library
platinum
sahamnya
beritahu
##uragan
present
mengupload
reskrim
1978
granit
berhutang
sctv
kedatangannya
berseri
konsepnya
engineering
kubus
pkn
kadangkala
paw
imf
keluargaku
kepanjangan
hmi
nyiakan
apung
republika
masal
##down
harmoni
##evakuasi
kesek
liputan6
neon
bermasyarakat
menyusahkan
macau
orient
buleleng
sampling
gloss
semangatnya
juve
pengesahan
setiawan
##orialnya
##iklankan
##likasikannya
oppa
merob
##oplas
deket
dibalut
melintang
khutbah
nasir
momok
##ruh
dimudahkan
##roses
komentarnya
##angkang
marx
tutor
earth
mematahkan
situbondo
naw
rip
aga
##aleg
muasal
resepnya
ngurah
##antanan
jed
pemikirannya
statement
konkret
##otasi
##ein
title
domin
beraturan
layu
feri
dandim
audisi
##uary
##ilayah
disuguhi
hangus
alhamdulilah
mengomentari
terselip
##cator
keikhlasan
##okumentasikan
gif
perkelah
plug
munich
agam
manisnya
##tes
##tosa
pencetakan
dalem
rina
##utradarai
adakalanya
lantang
mencukur
vertigo
merekalah
##adani
pts
##bada
kuesioner
remov
kristiani
##tuku
futures
balutan
##midzi
jup
digali
##eknya
tumbang
terpaut
##ilia
mentari
kecurigaan
pendaftarannya
terut
ott
biskuit
##antri
menyerukan
rimba
sj
##boy
##judi
tele
4000
suw
berbisik
neneknya
hav
khotbah
menyur
ketulusan
##engalaman
diatasnya
muluk
##ritis
##ologinya
dimata
##85
ym
santo
##ayap
bondong
fort
##ako
tup
terdes
spesialisasi
dikom
nikon
rebo
##antaian
##alife
##aspadaan
##ebet
rp10
pikiranku
kepemimpin
prabum
disebuah
memperindah
targetnya
membiarkannya
tanjakan
##sive
bertelur
strata
ktm
##abet
die
kesah
kebayang
feminin
teguran
##dayanya
melakoni
##ific
psy
association
##uras
ero
kejiwaan
sepantas
tergesa
1975
imbas
##sai
holi
didapati
ariel
vaksinasi
pasarnya
##jol
kejantanan
maintenance
mikroorganisme
##acuum
packaging
sbg
kecoklatan
poli
nutr
roman
vinyl
menghubung
##tat
setrika
nim
microwave
almond
##ensial
webmaster
venus
prabumulih
chicken
##odok
devi
##cho
testosteron
straight
gain
dukungannya
mampet
string
dikabulkan
raka
alexander
kekuasaannya
kusut
pengeringan
atlit
##traksi
##estyle
##yog
belimbing
rangga
imag
membasahi
terpecah
batur
##ective
enc
reporter
sym
##gat
papill
seperempat
mendung
tarawih
##gor
pembahas
muhar
kelew
mengolahnya
lumpuh
vin
object
##zed
ae
autoc
kewaspadaan
rawit
putu
##gad
midd
education
perkelahian
pengangkutan
kamipun
ditan
berwirausaha
vacuum
menyusut
terlewatkan
pembentuk
diperjuangkan
diadakannya
camb
kestabilan
utamakan
perkemahan
menghadapinya
hiruk
leuk
##was
deck
##amalkan
biyang
##onto
leverage
merpati
bean
finlandia
bising
gambut
resephot
terjal
walk
copa
diskusikan
bmkg
##gie
##ит
fantasy
##aktor
terserap
takh
##jahterakan
sragen
bersaksi
pure
wars
pear
pho
motors
induknya
menir
##bre
hambanya
kandungnya
sembuhkan
##rier
##nt
tipikal
berlakunya
mengungg
##otif
clos
costa
paroki
##74
masing2
matinya
memanas
menimba
prematur
dievaluasi
mewujudkannya
shopee
recomm
##otrading
bercabang
bincang
mengkhususkan
rancang
mancur
siakan
dirayakan
##lot
magnesium
praktikum
risalah
##yanti
prep
hampa
021
seksualitas
##osaurus
debi
ramen
tepian
kromosom
tangisan
eq
##epi
kurap
tumis
wild
hikmat
##erl
blush
berasumsi
##janto
wagub
membasuh
ppob
sejarawan
##oksifikasi
student
menyamar
polip
settingan
kemiringan
anakmu
artist
dry
keberhasil
explorer
ditelan
berimbang
##tagonis
elizab
madzhab
hadapannya
##ridge
##ography
fall
pemisah
nitrogen
heks
sirup
belt
tasa
keramas
diformulasikan
dialek
mengiringi
dinantikan
menstimulasi
vampir
plagi
tabloid
terbat
scanner
safe
chicago
##jaman
kebab
pesiar
pembantaian
##butuhan
ilusi
penghujan
latih
tangkai
##ilingan
##awangan
##onjong
dihidup
skotlandia
relief
tangkis
cutting
akulah
rakan
##acle
##sing
metaf
trust
nasibnya
perangsang
ibrani
nalar
membedakannya
nagari
##pei
identitasnya
sandang
kerumunan
dicinta
penurun
##words
nice
arist
pej
nonstop
multik
ember
busur
berakar
berinisiatif
melambat
graha
challenge
azza
stigma
penyeg
hening
pelapis
##bond
##rium
memboyong
western
##ways
minor
##follow
pemeluk
pantau
menggeluti
##keu
nopember
edward
##bro
##dikti
senat
##fiq
diutus
percikan
ditukar
##gol
terencana
islamicfinder
diemb
musy
pengendali
women
kaz
plasenta
limited
##rad
wales
pembuahan
terselengg
##elahi
acid
darussalam
bertempur
phk
prac
##tipkan
pemerataan
##icoba
iptek
palangka
lub
ikhwan
menengok
tersingkir
dipus
mengelus
1930
harddisk
hunting
##cia
nie
menindak
bumd
country
##ال
ngehits
##batu
parad
##yy
biara
##titatif
##hhh
jupiter
supers
doraemon
tabrakan
lod
nasution
perekat
motherboard
manc
##hia
terong
gelora
polresta
baterainya
penyelamat
mikroskop
berbangsa
mencapainya
march
tindakannya
1962
brutal
lunas
##juta
gerbong
mendukungnya
mengingkari
vcd
##ision
fauzi
jones
kejuruan
32gb
perancang
##apay
boots
##89
steven
akustik
mika
duduknya
paralel
temanya
##neum
##bow
teles
ssh
creative
kd
heru
waterproof
kepan
angelica
condition
dipetik
##ulisti
ibumu
sakral
roller
quar
##yian
##esek
telunjuk
indotrading
dilihatnya
dibudidayakan
mio
##annja
berpetualang
##umpal
titi
rudy
senangnya
##anggungan
##ukus
rahasi
pesimis
dicanangkan
##ristek
hans
raut
elektro
optimistis
pelita
##ept
konspirasi
vonis
dermatitis
divonis
belannja
##uld
belut
kebid
paskib
##oya
ustaz
##xion
kadaluarsa
gemari
tirmidzi
sosmed
planning
memikul
brio
infinix
##abs
menjerit
cabut
merdu
##angsel
mahakarya
sanch
mandala
melegenda
dilirik
them
tahta
pementasan
dibiayai
eman
bergelut
impiannya
juang
reda
blokir
disatukan
##atural
chev
##ovask
nou
menggantungkan
orisin
kei
ovulasi
tob
##andakan
hue
1967
oya
pemalu
tutorialnya
aster
mense
##opulerkan
hwa
bulutangkis
beladiri
dikomp
menghaluskan
##castle
mahalnya
rush
emosinya
##okoh
memperdalam
##itoris
kalam
##ebang
yell
apl
memperbolehkan
sekolahan
nana
miliaran
fanatik
jac
pengampunan
ditelusuri
memanj
##eduh
valentino
balak
kuliahnya
poligami
menitipkan
##gensi
spare
innova
##endak
gawat
mazmur
menitik
keep
##anas
menorehkan
##isial
marching
president
sebelahnya
philips
ditanggapi
belom
##asib
menyeru
kapital
vila
ls
remas
##79
perintis
##ompokan
dipindah
##lank
nes
pematang
##rag
##atau
jie
diwariskan
aston
sewu
hakiki
mengampuni
dahul
mushola
s8
salwa
diharamkan
##ged
riang
menaj
diperd
kesucian
idea
thi
rika
dae
tunda
pigmen
bontang
misinya
shen
lih
maki
optimisme
memantul
fasih
kj
enri
##head
diupayakan
kuantitatif
punggawa
senter
astronom
affili
matr
pengharapan
corporation
##ongsi
pembela
tersadar
hur
kemendikbud
kolektor
##vian
##angsingkan
mencontoh
rele
kelar
makar
dibawahnya
lalunya
gajinya
##ancy
norwe
pembalut
dihidangkan
##ringan
##yp
keringanan
framework
##ente
spy
memijat
googling
newcastle
onlin
tena
sew
kakao
1976
berduka
mengeringkan
daj
penggilingan
##suf
berhent
volat
cerminan
pankreas
dt
bajak
motto
bronk
gali
tonjolan
cucunya
genetika
ananda
##alunya
elizabeth
rita
##owoso
ppl
difasilitasi
##px
konselor
shadow
apat
moderen
emiten
diwilayah
brank
yel
##daskan
terapis
##ulatif
buf
herbalife
sexy
geram
fbs
submit
365
youth
berpenghasilan
dimuka
milk
##atek
invasi
kelemahannya
faisal
merchand
noor
##utive
dididik
baper
jod
rutan
posy
merangkai
hiks
mahat
debitur
##ewaj
##olar
snow
minangka
gabus
##tech
menaf
danny
trendi
juan
fira
moch
##epuk
kewarganegaraan
berlandaskan
aerobik
berbengalaman
jkt48
sajak
bergelar
citanya
pemutaran
ponselnya
keramahan
menambang
lanskap
karton
khodam
rakaat
digantung
championship
mengeksekusi
command
bumdes
menggertak
terpampang
##ghz
rusun
##utu
##orok
taubat
ringkasan
rest
menjajal
bondowoso
bergoyang
dakwaan
loop
didiagnosis
gsx
buas
perjuangannya
##tuaku
pelunasan
sans
melangsingkan
freezer
subscri
maw
##mart
siam
empiris
##agnosa
##ecehkan
bibirku
memadamkan
shio
mua
penguji
kepo
bulunya
rena
210
sandaran
seven
buana
##plore
asta
beroleh
searah
clip
##embuskan
bpr
##ending
mulutku
kepemimpinannya
dilandasi
stereo
##undang
##ected
mengungsi
##apor
transform
pelit
hoon
partainya
feeling
patogen
##asilah
berkemah
kyoto
##usta
##ormasikan
syurga
berdebar
teruslah
mengaitkan
fren
jobs
konservatif
ridha
bermer
dianalisis
jem
nazar
tempati
abc
takutnya
kesederhanaan
kecepatannya
menginter
intellig
mendeskripsikan
domp
perekaman
terbitnya
xxx
menggemaskan
gigih
pengulangan
diverifikasi
position
socc
kolega
meleleh
##antoro
endapan
menyalahi
menuliskannya
minangkabau
hasanuddin
brankas
##ungkas
kesemua
##ewajiban
pendopo
sepantasnya
##ombak
antiseptik
stm
jeram
antrop
tukasnya
mediasi
##aign
##sec
##pose
infus
keparahan
dimaknai
memeknya
##upukan
direkam
abe
kebersihannya
##ulut
##ilit
##rokan
fard
suppor
andalkan
bersed
harfiah
saturasi
british
dipercayai
pengereman
stun
hung
mungk
hb
merebak
##guyur
##utannya
pembekalan
dibina
pelapor
##tase
wine
##isika
anjurkan
##eke
##ampuran
bkd
##wr
kurasa
duet
laporannya
kardiovask
##lear
##uskupan
pamit
donatur
diurus
redup
pengiklan
rx
revolusioner
than
donk
kayanya
gemp
penyusutan
candle
kompresi
penemu
kbbi
persawahan
##ateral
dipenjara
selangkah
fred
jualnya
nasionalis
indie
mewarisi
keuskupan
istiadat
reuters
##apping
luh
bluff
mencerdaskan
firdaus
profesinya
##atri
dimatikan
supervisor
filosofis
skype
fiktif
##73
##ernak
##operatif
genting
dibolehkan
kamtibmas
##engarannya
##ngan
##tualisasi
##alak
##imbon
##dani
##ла
berilmu
##itz
moderat
ahl
canada
lind
pedal
permukaannya
pialang
ea
##akit
berkewajiban
bop
eb
##simpangan
bergemb
550
tiketnya
sofyan
pertahankan
denim
1200
dariku
khusunya
why
must
##ility
count
validitas
here
terekam
##olution
atletik
sepihak
giro
ijen
doh
alfa
tourism
berkelahi
##tre
sample
row
##intesis
dipanaskan
mengharumkan
asses
gamblang
ngomongin
astronomi
anto
##sky
menghakimi
kepresidenan
##tisan
dasi
memasaknya
memandangi
hrd
merespons
scroll
##inity
batman
favor
beringat
letih
scar
helai
serah
##essor
kabag
tiruan
perpres
kaj
cemara
animo
##ahah
##etris
##cao
tarikan
mudanya
tree
tc
##pg
terluar
pembahasannya
keakrab
mono
tib
keberhasilannya
##ury
sirip
mengijinkan
pangdam
parenting
neis
##opia
##truksikan
disempurnakan
##elajahi
susahnya
kesayangannya
tube
bereksperimen
positifnya
##tahun
hey
##track
arn
asih
lex
ghaib
talkshow
ross
coding
change
##night
mengingatnya
##ان
##tero
##oang
sparep
watu
##olit
hewani
pneum
##hub
kupas
pahanya
cium
twin
gop
lebay
gesa
attack
pret
mendesah
dekor
trafford
unggah
deddy
kerennya
hae
kemay
berterimakasih
ntar
##ehati
dipantau
menggalang
4k
##ontokkan
sajadah
brad
zikir
terhibur
dpw
brc
melesat
flower
ekonominya
berkebun
moderator
##ipe
kedelapan
terdorong
jaz
hipnotis
stage
diulas
ipar
dicermati
kartika
salahsatu
terdampak
fasapay
##entralisasi
berlisensi
piranti
besoknya
perundingan
pisah
cerob
sparepart
mengonsumsinya
penjaminan
##ли
lina
ngotot
104
button
primbon
permod
expir
eddy
drainase
114
pertunjukkan
melitus
##eva
debutnya
mensyukuri
apoteker
sinergitas
##ane
menyembelih
majemuk
lagian
perilakunya
ihsg
loll
kebon
diibaratkan
##abe
musi
pancake
terpancar
gadjah
panwas
##seria
belerang
keturunannya
dzul
faktur
johnson
##iminasi
dell
ns
palang
terpanjang
pemupukan
membusuk
kemayoran
merchant
method
diminim
tabanan
pencaharian
jimat
##lav
##arkas
damage
##well
##anyekan
wax
subhanallah
cermatnya
trimester
saka
tagline
dinkes
##tainer
##bao
lily
1977
9001
berpasir
memikirkannya
asem
##nies
##trasi
muf
telinganya
ambruk
suf
anyaman
##cin
klan
##dirilah
lav
erotis
kutukan
##entangkan
berbobot
seledri
sukarno
cham
menyusu
pashm
gayo
youtuber
hell
tinju
kurniawan
nint
##pahaman
kalem
diperm
hadiri
pikuk
permusuhan
##bek
##tuhanan
##yoskin
disain
welcome
b2
320
huda
livechat
perangkap
integral
penata
pijakan
pashmina
liyoskin
boe
##cter
bertakwa
galian
delima
hilal
fh
keses
jamak
ketuk
menyongsong
bermotif
keributan
menyeleksi
niatan
gambir
menggugurkan
sina
strap
gerakannya
perumusan
oval
dapatkah
##eee
kbri
##osongkan
##alayan
kooperatif
frasa
executive
klubnya
taxi
bukittinggi
##yalakan
penangkaran
lord
revitalisasi
kegunaannya
##ihatinan
lumut
sanchez
##vir
berdialog
##rp
pengetahuannya
porsinya
anthony
df
setor
penyebar
kontolku
##ible
kendaraannya
tergelincir
##mnya
perus
peniti
suc
arca
##rir
disu
hingg
soc
penyuluh
##tabilkan
4x
sahih
transmigrasi
slow
most
ganjar
lipi
roro
dicap
##injing
minumlah
lotre
aan
##idum
bekam
denature
bacaleg
berselis
kurva
fluktuasi
##artabat
##elet
membungkuk
matt
paguy
uban
##pangan
gendut
co2
policy
keakraban
penug
elektabilitas
djoko
berna
##uluskan
monopoli
disir
batangan
berjil
lumia
saudari
##advisor
absolut
##alkannya
acne
##lina
mereview
dianut
substan
muncullah
kebidanan
mahmud
bertara
dirintis
norwegia
##kohol
dibenci
membobol
obor
illegal
gita
##uction
bergelombang
menyematkan
imunitas
##tipasi
romo
jalla
memusatkan
diperuntukan
parkiran
mudi
juragan
menter
##ungkung
detoksifikasi
ditunjukan
yul
pembanding
##latul
exo
ambul
pelarian
cong
kompol
edar
##odin
absensi
pengkhian
ez
##huk
##ulat
melembabkan
pwi
dipuji
mengabulkan
##eko
mengunjunginya
semar
pelaut
holiday
jamal
##bodi
penunjukan
mengaksesnya
tana
##etti
pemerhati
mendap
koq
sawo
pelacur
terlewat
bism
kesungguhan
manufac
dibidangnya
turnover
1973
leadership
kecerahan
pemimpinnya
##lud
##на
menebar
menahun
markus
lambatnya
##zieq
##edarnya
beriklan
sesederhana
upi
busi
kelemb
gunc
menamakan
instagramnya
ditanami
eden
##atsun
sembahyang
macamnya
rp6
bersedekah
operasinya
epilepsi
paksaan
##matan
alan
mayjen
jawara
melontarkan
##lee
melaksanakannya
mob
wheel
karuan
burn
berapakah
##ghting
civitas
merambat
hyundai
disalahkan
memberkati
dibangkitkan
bertaraf
mengim
aren
##real
sumar
macbook
parsial
menyap
diinformasikan
tuhanku
diperbincangkan
menontonnya
boh
barel
pembelajar
ketidakse
alif
ethereum
berselisih
soccer
misa
sdr
powerbank
bersamamu
berhemat
##larifikasi
badak
lompatan
rcti
banker
rakor
berkepentingan
kenc
sayapnya
##ento
guntur
pertemuannya
benny
sereal
parut
moralitas
robin
waras
senggang
jean
gallery
centu
moy
pemanggilan
neisseria
sontak
##wuf
blancos
experience
memupuk
duco
raise
nasrani
berbangga
dirut
emulator
intip
ditakdirkan
##loud
prasyarat
menghadang
belang
##olate
##olahkan
mendong
1948
##sour
tian
sekuler
mengukir
pendistribusi
##hara
titipan
mex
translate
##ebal
booster
kejari
pindahkan
ende
perfil
keprihatinan
rizieq
kesombongan
yakinkan
thalib
##rensi
fakir
##tafel
blade
terperangkap
penggantinya
future
kesalahpahaman
ungkapkan
##opong
jepretan
dinginnya
##ports
mumpung
fashionable
beralkohol
biz
perampok
eselon
dipatok
posyandu
kebutaan
##aching
mengguncang
tergerak
digadang
layanannya
sependapat
nintendo
mulyadi
penugasan
senar
resistensi
##unggunya
penculikan
dokumenter
digabung
tags
nyali
menyamai
menetas
feedback
persimpangan
dikenang
berempat
dipanggang
xvi
pamungkas
aquarium
berendam
pintunya
orif
magis
nvi
##utch
sisihkan
dumai
bertipe
bahayanya
diakuinya
menjilati
tribunnews
variable
rangking
deskriptif
inspeksi
merapatkan
##zam
guling
aun
##enggut
ibunda
sirna
puyuh
khayalan
bermukim
berjasa
rangkuman
kondiloma
langkat
##98
simul
portabel
affiliate
impresi
cn
memperjelas
ertiga
pemecatan
##player
melebarkan
##ongkaran
lentur
##amus
##oral
task
##manto
##otin
poso
rahimah
setengahnya
spurs
pandu
lintang
bright
alay
bundes
oreo
pendinginan
industrial
meml
teraba
kargo
##otisme
vidio
ita
##redi
blanja
bersilaturah
amr
1669
mandat
pring
penerapannya
homos
kemunduran
##uasaan
beck
##akwah
1971
memaks
penyeberangan
cape
age
pemasar
rolling
selebritis
lengah
berbaris
wallahu
fingerprint
##ciuman
pamor
disutradarai
penggamb
##kel
##otti
##lahatan
##onaris
laur
##ombolan
pisahkan
gramedia
progo
##oordinasikan
matian
##nyawa
filsuf
tham
kuper
penag
pembenaran
resin
diwaktu
karun
six
erg
cewe
##islaman
pemudi
arb
##ichi
persipura
menyamarkan
laf
pijatan
malem
zuh
kepopuleran
terlena
parit
tenter
fisiologis
ikl
penyed
##mg
wkwkw
unggahan
##pas
dibenahi
sagu
instrument
situasinya
responsive
anang
kamarku
diperbaharui
profita
ngin
wisatanya
berkebutuhan
huh
##orld
relative
pemerkos
ksatria
sadis
pemblok
standarisasi
syaif
cleaner
bermartabat
##dikbud
rasi
yeo
dipecahkan
roberto
silih
pencabutan
tangsel
headphone
aditya
##raan
kelembutan
harvard
hyung
sebe
augus
ssc
berciuman
piston
gea
kastil
dilip
dikota
islandia
ina
generik
##ка
pastel
nvidia
##awannya
##torat
gitaris
##ekasan
nagasa
selenggarakan
terbaring
berikanlah
##row
##elap
konsen
bidikm
muter
manda
##onoid
ucapannya
menghantam
menat
kompleksitas
penyempitan
##bc
tertanggal
168
##cow
membantumu
##istensinya
wibowo
##rida
keikut
berpend
tonggak
mentrans
js
menghela
laporkan
wajan
omaha
eksploitasi
gates
##forma
1969
sisik
berjuluk
taipei
berbakti
keterangannya
##xel
sawi
disita
silaturahim
keceriaan
disambung
lumbung
kekej
homo
mengon
huse
kentu
lego
kepah
s5
##alung
diaman
##adz
arogan
145
##gung
termuda
angga
diket
##opik
##akiti
syawal
muak
ragukan
##scape
##oteknik
##edir
conference
tetesan
persoalannya
pemblokiran
ketuhanan
terutamanya
disalahgunakan
panu
donghae
beternak
bold
galak
fath
tomohon
chief
lifestyle
kuli
dinyalakan
##aktifan
albert
##nakan
menghiraukan
tangkasnet
fasilitasnya
lounge
parade
dibimbing
death
##osiar
##rovokasi
silva
menyumbat
menuruni
cidera
beranak
lembu
menyisipkan
##ampanyekan
##peng
##heimer
bidikmisi
kekun
pewarnaan
##tawakan
johor
antibodi
cakram
memihak
sebaya
##olas
menyambangi
maq
epson
pajangan
mengay
seump
##gc
psiko
##ardjo
mengocok
isolasi
wasiat
berla
##egi
sebatang
##biyah
santap
eyang
dermawan
surfing
##kh
menjalaninya
merelakan
korosi
voting
agu
mematok
ubin
menghindarinya
ludah
kehati
ultah
denny
##udaan
doctor
penggiat
budayanya
sunah
varis
##sche
keemasan
dijatuhkan
##oporosis
dovi
bisikan
terdalam
menukarkan
alunan
berwajah
sampailah
menerangi
giant
bintaro
shade
##anced
cancer
dikep
wanginya
belikan
launc
lava
##fin
beritanya
depkes
diberangkatkan
beradab
berjilbab
century
pengkajian
terpikirkan
rian
menghuj
raffi
tasawuf
nona
##baik
ketimpangan
##enggu
kedewasaan
dudukan
musuhnya
##outh
kompromi
projek
##icil
shot
konektor
lebarnya
sutera
tunjuk
dicintainya
greg
borus
compact
##eball
lotto
tuas
##klusi
##nag
tuaku
leste
##tz
anom
kelistrikan
laras
dirah
mengah
##udan
sensitivitas
sayapun
hargai
britan
menggo
mencurigai
ubur
##wung
pembib
netbook
vl
nagasaon
totalnya
jackson
tercium
istiq
dilokasi
daftarnya
konstipasi
dob
##angkaan
##cocok
disibukkan
1949
stroberi
kenak
selempang
kontur
penukaran
##sang
pelik
merun
tengkorak
nay
menyebr
katering
meranti
manok
berdakwah
period
kemendagri
brip
keamp
melewatinya
##uet
janjinya
rafa
kebos
menci
tommy
bermodal
gianyar
favorite
adwords
pkpu
luth
brom
perfilman
##turi
pelebaran
keruh
bubble
mendetail
terorganisir
a4
kate
terpendam
sinjai
khofi
olehkarena
kakeknya
menggandakan
macem
1972
rizky
tjahaja
jodha
zalim
cendek
pendudukan
dicairkan
ambillah
talent
flop
indicator
perampokan
dideteksi
##loop
##hut
sukoharjo
swi
husein
perkalian
semarak
dipimpinnya
##riel
##iliki
slid
##uko
santiago
16gb
hormonal
bubar
bloom
166937
culture
berdandan
pemerkosaan
##unculannya
bentol
berserakan
role
munafik
jpg
ext
##leng
swansea
fahmi
analys
##matis
masyar
patin
##ecoin
tika
dajjal
##enza
siah
induksi
korek
pemij
ppc
wd
##tl
shel
dipraktekkan
##pin
##tron
pulas
perjam
sungk
bergabunglah
ferrari
saras
jijik
elastisitas
skep
pill
padu
osteoporosis
tala
pray
##raf
##kara
sastrawan
##anggunya
ust
##rizal
demografi
canopy
merkuri
oriflame
nahdlatul
resign
berti
lidahku
sentul
paint
keislaman
peregangan
bimtek
politi
andreas
kecilan
spf
digunakannya
parti
kebosanan
datsun
struk
wastafel
pengep
kultural
wabup
##63
kerahasiaan
terjerat
giginya
union
narsis
kwar
yon
hunter
##epkan
faedah
qud
##ekalan
diperbuat
milis
##esin
##rung
manajerial
etos
muba
hambar
ranc
tracking
ens
bernyawa
tebo
manokwari
xbox
larva
handle
bronkitis
trending
kredibel
wapres
##bm
angket
klitoris
hidungnya
unair
##gita
solution
kind
opening
kelezatan
kepindahan
##wiyah
glut
##erda
umk
coret
##wet
cupang
river
##look
sulap
jeep
hafalan
stempel
##instein
##lob
2021
keakuratan
penyempr
reserve
elektronika
lollipop
matamu
##anggalan
taylor
tangganya
mensyaratkan
lindung
##off
agrib
##tify
dipertaruhkan
jodie
bertumpu
strategy
diary
tanamkan
##name
khofifah
##uno
##uksinya
mamu
indosiar
penyaji
shooting
##ayaannya
pasarkan
difabel
hsl
spong
citarasa
anhu
fiqh
cet
memeg
##ladesh
sanur
##adesimal
##urikuler
ambeyen
ngajak
represent
gunners
mengejan
maskulin
brownies
##lusif
setahu
instaforex
kerepotan
##othing
mepet
petah
giz
paguyuban
membayarnya
hdd
terkel
r15
laos
ost
menunya
raisa
##efektif
ilir
pengucapan
silatur
widi
kosa
kpi
##mos
fok
kebalikan
rp7
##nat
edukatif
##kahi
champion
wing
angkanya
baliho
##82
keberlanjutan
menyelimuti
bomb
ruangannya
##kit
hehehehe
pewangi
peras
sinis
semenanjung
dynam
hant
keanehan
gos
pertigaan
pelak
preview
pertiwi
mito
jepit
zionis
##itam
pandawa
tuntut
direnovasi
daha
spp
tabi
penyembuh
bangladesh
semprot
residence
##pul
##atib
##arya
##ujur
107
perkirakan
spiral
regular
##obar
menyiratkan
tapan
noni
badut
hidrol
tenteram
##wit
breast
anne
106
##osiasikan
agribisnis
ico
ern
course
bermata
message
khilaf
poni
menghantui
dihari
corn
##oz
mempunya
##diq
hobinya
permodalan
##raya
bookmark
unlock
colok
##etic
##eles
hatian
crash
blm
memintakan
francisco
semeru
linear
jantungnya
widya
menumpahkan
##awari
jorge
dipak
##ription
kerumitan
menulisnya
fle
sumb
tergantikan
loncat
heksadesimal
##ukuli
ditopang
gebr
gaal
081
pertanggungan
jane
lrt
setibanya
medic
tempelkan
##ultural
##life
garang
##umat
coretan
bius
kedinginan
urusannya
growth
amper
dusta
##adiah
##له
ilmuan
menyenangi
piatu
disegani
eksportir
mami
suram
##itari
saringan
##embatani
tematik
bergembira
berger
##jaga
ekologi
teranyar
##busana
advertising
skip
swalayan
optimalisasi
diremehkan
yoona
##jati
diancam
pemotong
maskot
##case
230
chocolate
karnaval
mansur
musiman
terurai
pendahulu
cen
##sirkan
merchandise
bengkok
cind
menyendiri
ummi
percayai
seksualnya
##gap
lekukan
##enjot
penghambat
dagangannya
bilah
fior
##meal
menstabilkan
element
segel
cgk
##mod
mendinginkan
##fly
kemaslahatan
kerucut
germain
dihidupkan
mengaplikasikannya
menemb
bergum
merapat
kecem
konsepsi
riding
##meng
penir
privacy
kpud
aper
cinder
khair
keringkan
fro
##jil
sayyid
ibaratnya
faktual
artif
mempermasalahkan
dicampurkan
lbh
mendownloadnya
borussia
gow
lobang
ampas
##enamkan
gemetar
malap
tensi
pamekasan
rindang
lamban
giri
jutawan
berpengetahuan
kyu
bangkalan
enrique
##encan
disenangi
competition
hayat
6000
meniup
terim
delhi
memuncak
a2
##intech
embun
homes
bawahannya
upayakan
##ucikan
ambec
memandangnya
membintangi
##ogasi
##ampai
penggambaran
untu
veri
##arsipan
##angati
electric
interest
rahasianya
direkrut
berakhl
pembibitan
diadaptasi
##ploitasi
mengejek
migrain
##ukuhan
penalaran
kaumnya
krakata
allianz
dilanggar
sitem
menpan
melindung
ssl
meliput
bash
mengedukasi
penghasilannya
munc
ogan
insi
dinosaurus
muharram
alice
pelarangan
mengoreksi
##yari
tahunya
briga
compos
konst
gund
autis
oiya
dadakan
penertiban
pegiat
stret
##epad
pembudi
kaji
ard
pembongkaran
difoto
ck
ditaf
##ijak
kebelakang
agraria
##och
konter
please
##full
daster
wass
##hop
tod
pancaran
dzat
kepemudaan
uii
mpasi
mencel
terbitan
potensinya
penyaringan
##wamu
nawawi
diberikannya
tray
##athon
fel
nev
##enguk
pacific
ketupat
##olid
menggaruk
toni
hartono
480
koramil
cosme
menjajakan
menyisir
kicau
jerami
##vc
newbie
phd
anatomi
rpg
bimbel
1961
aug
penyebutan
engineer
##minton
glik
##siri
bersalin
##irahkan
mendagri
amis
##edikasi
buatannya
##oj
1968
seukuran
hijriyah
lens
mendeklarasikan
##го
akur
##gate
stephen
baha
kemangi
sinta
##zikir
eits
darwin
beribu
ketangg
ding
ttg
bundesliga
inner
bersim
##hire
organic
ws
##ejaran
##ejamkan
##enceng
ff
alz
mapolres
##nea
terpidana
gareth
disitulah
jargon
1963
lampi
##enol
pembor
direp
ambeclear
resource
ship
nikita
meriam
tanding
rahimahullah
##eza
##apu
kejanggalan
penuturan
fore
512
akademika
ajax
menyikat
##onta
##terus
mamah
maxim
sekuel
sesosok
##olf
berbatu
ditipu
ngej
inspektorat
jalak
lobby
menaklukan
##inneka
##utani
##diran
crew
banjarbaru
keikuts
##sterling
zulki
manuver
petahana
interiornya
teraman
mengiyakan
bruto
dipermudah
##versifikasi
##bullah
pubertas
850
lulur
##town
mengakomodir
jongkok
berlabuh
penggugat
andrew
merangkap
##badat
##edad
overall
zhang
awali
batasi
bermuatan
release
giling
kombes
meh
dikol
plastic
##gih
pekerti
madya
bismillah
disco
pariaman
terbelah
perhot
kebiasaannya
diel
##lom
bandeng
##ayam
ketenaran
pleci
##pang
kameranya
recei
pengger
##abung
merampas
konkrit
##anus
calo
drink
perhotelan
berkip
transjakarta
syahid
joseph
ign
menilik
dja
tersayang
badminton
ghazali
valuta
bertingkah
tiduran
sigit
dimunculkan
susulan
kimiawi
lm
##asembada
wayan
memangnya
ngaku
bercocok
menyerbu
diabadikan
jaka
banjarnegara
dall
susan
woman
septic
##block
scal
earphone
nugget
komet
surplus
sumsum
perisai
kehal
siksa
idealisme
pengecer
tipes
##mond
##alawat
didedikasikan
citakan
berusah
endang
menempat
hawai
help
menyek
pembuatnya
skutik
stoke
telurnya
akte
superman
zal
keterting
pie
keburu
argo
teleskop
diduduki
ekspres
menyetir
tampung
##empatannya
mamalia
pantul
praja
sema
##ining
##ipn
wirausah
##ри
arte
pengecatan
oatmeal
asim
liu
##oven
sengsara
vulkanik
penirum
##ken
##188
##ikatif
##perin
mewaspadai
##utakhir
terobsesi
bedakan
menyuruhnya
mengetikkan
##∞∞∞∞∞∞∞∞∞∞∞∞∞∞∞∞
timbunan
terbentang
pipinya
deda
tanganmu
officer
jia
gubuk
dibantah
seker
##arani
stam
##inggungan
bersiaplah
##sertakan
kukar
spektrum
dikejutkan
tapanuli
meringk
jawabkan
yum
biolo
mira
chain
##irmasikan
vinc
kebotakan
lempar
cakra
dikeringkan
ctrl
menangan
dipilihnya
jpu
bhinneka
berkompeten
quote
letter
mengaca
##ompi
mempersulit
conv
idris
dideritanya
lempeng
##hani
mengat
pengukur
marco
1080p
materinya
lili
##encet
usut
zoster
foam
srg
##arkir
##waw
ramos
kecocokan
perah
ujicoba
##erhanakan
kakiku
harris
berevolusi
luwak
saputra
lampion
diperolehnya
krakatau
##timan
adopsi
binasa
wet
berdamai
buatkan
barcode
##yallahu
renungkan
timeline
kepanasan
##likat
slots
bajakan
##gers
datuk
pamannya
##abisi
pertandingannya
arit
kupikir
cantiknya
keran
mean
8gb
clash
ketajaman
antrean
imran
manifestasi
semalaman
resume
pendistribusian
##injaman
pemandangannya
tjahjo
##ved
##ospeksi
arkeologi
german
mamuju
iw
dioptimalkan
berdzikir
berkiprah
##alisa
trio
paranormal
##ihab
tataran
##oad
mengac
sector
##dapatkan
ahmadiyah
mengaturnya
natrium
penopang
hembusan
profitabilitas
pasanganmu
morning
ble
memajang
piece
##96
toleran
sentosa
##gara
delay
mengecam
forest
anni
flight
ragi
andaikan
menggairahkan
cabor
##2x
cirinya
angle
hister
##alsukan
diangg
evan
mereda
inkub
flan
terpal
manufactur
menatapnya
##map
melar
irjen
okay
##erdin
##harjo
kesekian
##sman
serdang
izinkan
melahap
mengimpor
pertanahan
tergambar
untunglah
karate
bayarkan
penebus
indoteknik
bilbao
##eker
##obrak
fiorentina
kesemb
dikag
sql
pernyataannya
garment
berselingkuh
ejaan
kakakku
memanaskan
himbauan
toshi
praba
ponpes
residu
nong
meraja
dunianya
##alungun
metoda
##plan
miz
amazing
oblong
##yen
dila
jeff
boll
einstein
sempur
##lier
relia
##uz
networking
hasta
ketiadaan
64gb
mural
##araskan
campaign
keahliannya
dadaku
tumit
defini
ipod
##41
kedudukannya
qad
erwin
ktsp
pemaknaan
lakinya
ampunan
tami
ambisius
##uket
##pack
putihnya
nifas
1964
##esit
sosialis
jadwalnya
##91
penyubur
ej
sterling
kelembapan
bakmi
indian
##vet
##endy
lansir
##agakan
tingk
brid
talak
##edap
tembang
speaking
cegah
fra
coban
spion
berbusana
didiskusikan
225
##ista
kenakalan
less
pindahan
##ips
tercela
sintang
##buri
ditawari
anugr
meminjamkan
##att
##sius
built
basar
memasukkannya
##lantas
dop
##ре
penghinaan
merontokkan
gapura
shinta
bentrokan
beringin
supra
riuh
##gue
gift
ditrans
ternilai
mencocokkan
serpihan
ocean
visualisasi
swasembada
kira2
umpamanya
##etaka
lugas
hemorrho
adrian
oriental
##kominfo
fintech
cerna
a€œ
eg
berpat
menghalang
simalungun
tumbuk
##edip
mejadi
diberkati
diutarakan
pasukannya
binti
poundsterling
kontributor
anark
peminjaman
##agu
##karnasi
##ewanya
##young
berkantor
angsur
buton
cortex
membara
ian
diid
zakar
hiking
bagh
permai
ppg
bertuah
##fy
tindih
menyalahgunakan
dipunyai
akb
introvert
imannya
antariksa
##ahak
faq
node
griya
##dos
memor
langua
isuzu
writer
cibubur
##yawan
sorot
enkripsi
##baba
ageng
##cis
##ternet
cheng
flavonoid
senen
syukuran
penindasan
billy
berkicau
sugeng
sachet
aero
##elok
seantero
fs
terkasih
perasaanku
loc
membeku
sepeser
##eplus
sandra
##gah
##athan
advanced
##uta
mengkons
tromb
syahrini
pelu
memenangkannya
quraisy
mengkomunikasikan
##777
kronologis
##ebra
rpjm
keguruan
profesionalitas
perhutani
ihsan
samurai
diajar
fotos
##enyapkan
dimeriahkan
##amik
saiful
seumpama
jera
kulitmu
berjej
menganggur
sili
rusuk
kubis
##uasainya
recommended
##aratan
##ilaan
suharto
origin
communication
qing
risma
menggoreng
terindikasi
juk
persela
multin
##uah
summer
##pak
##personal
mash
disaring
##itansi
tuannya
autof
apa2
##enser
vaginaku
118
production
timer
##ulyo
fkip
darma
meremb
menjilat
syndr
sugesti
ketidakadilan
seattle
crow
kepulangan
array
active
gulai
jinjing
1946
sampeyan
sangsi
sedalam
ims
berkecil
raport
rodri
##omasi
awalan
mina
bercengk
tentram
julia
mengungguli
berstandar
jauhi
##istenan
penontonnya
##afalkan
memperm
selular
##diknas
mendulang
bandrol
pertahun
setianya
lanjuti
athle
refreshing
##park
menggemari
batangnya
kudeta
showroom
terangk
court
malapetaka
sidak
awas
alzheimer
mengintai
bezel
potter
licik
ekslusif
menyabet
proaktif
##antahkan
common
yellow
membubarkan
dibubarkan
lara
rasyid
mendekatinya
##omez
moving
bons
isya
##ences
##nop
##ilainya
miner
strong
##angsih
lekuk
##bandar
tertem
penyiar
dimaksimalkan
umbul
##gano
##icon
##anak
pera
##sem
menjabarkan
mengelak
kerapatan
gawai
##tot
rumahmu
bidik
inbox
kecantikannya
merepresentasikan
silsilah
##opori
##usion
menyodorkan
pemasangannya
penayangan
folik
##etri
hier
ciputra
gom
##andarkan
wisman
##anon
dikawal
memejamkan
144
mdpl
beraroma
perasa
conf
260
##iyah
kloro
ipul
bullying
mcd
venez
mamanya
##efleksikan
##61
aip
xenia
periksakan
kontainer
diuj
pangkalpinang
jordan
montok
dimakamkan
ujaran
pengeboran
mengambang
terpancing
udaranya
periodik
merenovasi
##belakangi
keing
terberat
kilang
melab
##aric
isp
tersiksa
##oloskan
kardiovaskular
dota
uninstal
telusuri
dhua
josh
##nesia
##apakan
kontan
##dogan
maulid
##anger
lucunya
wirausahawan
mond
diis
persembahkan
act
terdapatnya
##mel
##ekstur
##bunya
rp8
menjembatani
meleset
kecukupan
mistik
berik
pubg
##ulloh
picture
gomez
membun
##istic
kencur
dede
cooper
reruntuhan
melenceng
eni
mozilla
navy
iptu
##alk
ansor
asuhnya
beritahukan
junk
memeluknya
pengedar
perdananya
motel
arie
sodara
kawanan
misionaris
boeing
##enturan
darimu
dikuc
diajari
bujang
##alistik
britania
capa
bagas
ayla
kocak
##ennya
kandas
belajarlah
handset
sociedad
tunjukan
kedap
kocok
##iii
trekking
bakau
badanku
siks
alc
##ukumba
tail
motifnya
village
bijih
merendam
garapan
jahili
bluffing
sye
s6
gok
didekat
perjump
radiator
kriminalitas
##72
reklame
menyeber
dibukanya
equity
berseragam
##tunangan
##ayat
layani
galon
chanel
##ulistiwa
rei
bentrok
iklannya
berkencan
##buil
pencetus
pier
orisinil
berdaulat
petisi
cable
corner
mentalitas
apanya
dibanggakan
bawean
monggo
paketan
delux
##arna
wibawa
2022
##tukarkan
netr
kemaluanku
phuket
pencer
indr
merup
##entrik
ekornya
investment
xin
##wibawa
muar
##lia
ashar
other
diplomasi
peminjam
pacuan
rubrik
##onasi
serbia
menko
seok
##tivo
nmax
insurance
swift
hanafi
menanc
kebangkrutan
dirangkum
rajab
mengacaukan
pallidum
ditawar
hemorrhoid
menelaah
nyamp
want
esta
pengur
hous
alv
##iligo
menyemangati
jadikanlah
shim
hikmahnya
##intus
bazar
penggiling
berspek
##ulintas
keterpur
maslah
wayne
puan
##road
raba
##incar
##oty
sks
##egosiasi
cold
##red
##tubuh
##olia
bam
tanggul
terger
dinaikkan
dirusak
gema
##ат
gondola
serakah
##chool
jagad
kodok
ddr
lt
buatku
##businya
lobster
memarkir
##rea
atapnya
derby
joni
atasannya
zin
1959
kesembilan
dhuafa
mengunduhnya
kalor
reptil
merinding
atsiri
naz
psiki
kadin
menghuni
jerih
vixion
didengarkan
sime
280
sda
memasangkan
momongan
afc
cards
rp100
gugusan
beginilah
varises
pkh
terbatasnya
bandel
##cik
nazi
amunisi
lesi
orangutan
novi
pemalsuan
kebak
diijinkan
oto
brother
##okah
government
ahlus
hoaks
karam
hijriah
kharisma
landing
ketut
menyokong
##ujar
protection
kopdar
arsene
batch
##haka
temul
1800
bkk
fatah
seperi
kekayaannya
sustain
perkembang
balm
mengganjal
##atarbelakangi
preval
brisia
##inea
pertaruh
kontolnya
diperjual
ikea
##agat
cdma
hyang
mediatek
mitologi
kateg
motion
clock
cobain
##tang
mako
genit
antam
diproyeksikan
tercukupi
kombinasikan
freelance
terlelap
behel
mcc
menyayang
sobek
bangsanya
jugalah
##isis
##redit
bisu
selulit
##selengkapnya
memperparah
garpu
espanyol
kesangg
bertani
kemahiran
ngo
lukaku
berakhlak
digun
buntut
hul
berjemur
kegan
sera
berproses
kitkat
tersier
demand
manila
trimakasih
bermuara
ditafsirkan
yoni
##urch
penantian
terbebani
softgel
sengatan
sesering
ditindak
mea
##care
nav
jahil
gamenya
##hoot
gayanya
hia
nomin
gondok
novelnya
keterpurukan
##haj
bertatap
masjidil
selamatkan
ibuk
ijtihad
utsman
sard
##itera
penjabat
supporter
namakan
ride
carlos
sendang
jelajah
reng
apr
bersilaturahmi
kurungan
anjlok
nafsunya
fps
##enni
##kp
berdedikasi
berkebangsaan
##yz
penjumlah
idm
berpandangan
wonosari
wiranto
operating
vitiligo
cintaku
##tualnya
##iser
bertekstur
mengisikan
kendur
pantura
terpotong
##ipnotis
lontong
berorganisasi
keresahan
selesainya
bulukumba
ans
##voice
nhcp
dallas
firew
##dulikan
olok
##otol
negerinya
tampang
temulawak
##esign
kacer
tint
berseru
##edai
erick
jauhkan
bappeda
penghentian
ppm
menghampir
kondang
kegel
concern
##mata
bengkoang
mengabdikan
ansh
dinda
keagungan
penyir
membereskan
menghayati
essential
matriks
menyangg
hafiz
toga
hydr
kongk
maksudkan
penyemangat
launcher
deluxe
proj
kemunculannya
satya
terkabul
hatch
##apos
psikotes
##rahatkan
terapung
bongk
dirujuk
pku
taufiq
gateway
pulpen
perakitan
mangkok
119
tulip
fosfor
penyelam
tripl
kapabilitas
##uger
permasalah
membudidayakan
pengangkut
viv
ditakutkan
cucian
bench
mutunya
1958
holder
pidatonya
##ansinya
menteng
tungku
payak
ngurus
disebutnya
penjaringan
koplo
anggarannya
gebetan
berkarat
pusatnya
mengesampingkan
lajang
blood
tao
jason
berpuluh
audience
pengungsian
dipercayakan
kesediaan
##itel
##ristekdikti
suratnya
atraktif
yai
fara
##kb
harmon
##untain
tukas
protestan
oku
griez
aloe
hh
external
diapresiasi
berau
mengela
##efon
tia
berteduh
vigo
away
hlp
kedengarannya
russia
berekspresi
kejenuhan
tekankan
penyemprotan
kadarnya
dilestarikan
bersisik
scott
kepribadi
##etuskan
ekstrakurikuler
mencair
##ipt
biola
punk
diprioritaskan
versus
##afa
dahulunya
menghantarkan
xd
ketidaktah
kasa
##yati
binari
nexus
kaltara
sampang
freed
piringan
keperk
zar
anugrah
gac
dimasuki
gta
bomber
independent
sengg
sanalah
cangkang
kanj
depo
rajawali
gulma
##oteknologi
rapor
inisial
firaun
menget
nyai
terpelihara
leather
##elen
padatnya
tajuk
formulasi
euf
majikannya
diimpor
improv
##tone
perajin
kill
m1
arak
liriknya
dianggapnya
menyambar
bersubsidi
jiang
##nergy
##omer
berspekulasi
##apol
##ambisi
subjektif
angker
kekuningan
##nisa
bicaranya
didikan
supran
cakraw
kreditur
menghapusnya
celta
ast
horror
siasat
diculik
governance
trawangan
menggerakan
##ontin
menampik
komnas
negatifnya
##ergen
triple
dikalikan
shaleh
merajal
language
doni
janggal
peluncur
maks
##domino
pelihara
dimaklumi
kemegahan
marathon
##budi
topic
mengusik
##rana
##86
diposisikan
marcel
##500
memetakan
tantangannya
sosoknya
dioperasi
dating
laksamana
kelangkaan
lubis
rentetan
kne
kamal
raperda
habbat
pengasuhan
kaldu
menyepelekan
cart
esc
terendam
soet
memeras
pedrosa
penegasan
##atory
mengisinya
melodi
jengkol
bip
terfavorit
##unto
terel
##tiannya
geleng
bull
penyedap
vision
##iket
madani
##husus
setup
wujudnya
kana
carbon
ngaji
##isor
berpolitik
penahan
##sewu
padukan
perempatan
onani
syukuri
etawa
kraton
kostrad
jing
seyog
##iton
marketer
kodrat
some
imbal
yesaya
dihelat
swing
megapi
wahyudi
makanlah
korsel
dago
zainal
guncangan
##antyo
bosen
tolok
dedaunan
siluman
##hri
dihap
##obogan
##tures
pusar
menyaingi
munt
berhentilah
diekspor
sensual
impul
epid
span
menanganinya
abon
lupus
##engang
mencela
totalitas
kiki
masya
mendata
mengembangkannya
pcx
##47
utilitas
amankan
half
prabayar
average
ayub
smartwatch
mengurai
sintesis
chinese
utomo
nari
goyah
mobilio
sita
##adanan
##umpuhkan
celaka
laura
sekte
usu
##chan
ptc
gampong
berambisi
perez
##ayangi
##action
persu
##kita
mantel
cili
##eskrim
soon
ceroboh
selek
rekonstruksi
investasinya
menuding
bersem
##andaian
preventif
pasutri
ricky
berwajib
nj
wulan
3gb
##omon
zulkifli
professor
##bagian
klor
tokohnya
##sure
clark
avail
payakumbuh
grobogan
majah
beau
mempedulikan
sembo
tumbl
penanggalan
##ophy
ketatnya
diupdate
mensupport
berusahalah
penjumlahan
menasehati
##atua
angklung
hass
disumbangkan
menggugat
rimbun
adhi
membelanjakan
panjat
tersangkut
ruby
grill
sadarkan
duren
gabah
numpang
child
moo
darm
perintahkan
beriringan
chord
dilakoni
asahan
klg
##nyalah
##organisasian
##atrader
intelligence
##econ
##ongkongan
bootloop
cempaka
perjumpaan
dikan
nurh
mushaf
menghapuskan
##rina
basarnas
filenya
substansial
kesengs
##udahi
menahannya
tawuran
farid
terbentur
mengenyam
multinasional
klu
perma
gendang
haq
dawud
galanya
whitening
mensejahterakan
thumb
##fast
manca
##away
##tajam
v5
kompilasi
taqwa
s7
##odadi
ceko
talang
buket
terry
vista
diinginkannya
didahului
tabah
##edral
penyumbang
automatic
labil
##awir
penyegaran
meletakan
menjelaskannya
gorilla
homogen
##akanya
rinj
dien
pembalasan
berefek
adri
termakan
progress
kekar
synergy
manusianya
airasia
khalid
saks
sesamanya
##preneur
rahayu
risikonya
##ogenik
tunggulah
athletic
susanto
nba
ngambil
menggunkan
studinya
##esp
##ensus
dikes
conce
menirukan
direvisi
usap
gertakan
landas
sekujur
##illy
membalasnya
##qyah
adj
ngemil
##urung
png
##alauan
##emputan
kalteng
terjepit
radhiyallahu
meracik
klorofil
kort
keyak
##angko
bawalah
cleaning
morf
torehan
##hk
##uiz
membahasnya
wibis
lpg
gentar
diversifikasi
akunnya
markup
false
mexico
simultan
corp
dhabi
terbengk
ngec
romance
r25
##sun
advance
touchscreen
dnegan
diposisi
barus
pustak
kenegaraan
##zine
pertobatan
arabia
##888
horis
karantina
modif
konsumtif
berdiameter
tens
phab
penutur
freelancer
cakrawala
##inting
##empur
tegaskan
melapisi
berhadiah
ekstraksi
perlihatkan
days
berkedip
duplikat
##endaharaan
pelacakan
j7
##itaman
dalah
afgan
rail
kesepuluh
labuhanbatu
hanyut
tergugat
binjai
lengannya
null
outbond
ibm
##amas
##zard
grace
gosong
rujak
pengenal
naba
korintus
jelaslah
pasiennya
dishub
boston
mengitari
terinstall
##ned
impact
clinic
##erna
milyaran
belanjaan
wave
pneumonia
rinjani
bush
pattern
##ritisi
steroid
##42
mensukseskan
keno
membahu
kebahagian
orkes
curh
ldr
##ии
sesampai
##ograph
##apapun
bersambung
copas
##ule
there
kesemutan
edo
menaungi
farma
ditimpa
kubik
ahh
outsour
nugraha
kekerabatan
metatrader
stagn
menap
nihil
pemberani
rambutan
##istem
nr
kung
##city
georgia
ketidakseimbangan
terdesak
ancel
prostitusi
canc
intuisi
##iksanya
suzy
semboyan
rajut
tiri
diperintah
megapiksel
apartment
km2
##76
milikmu
kelipat
depend
lembek
kewaj
diramp
kesesatan
##nar
##tuai
nobel
x2
standing
konduktor
sebegitu
orasi
azis
paska
sesepuh
kejur
##isha
##amine
jala
##tusuk
kebaktian
psms
kepunya
##edin
prew
##ultasikan
slank
tentangnya
toshiba
maen
ceb
diferensi
kuber
##ordania
very
dikeluhkan
salin
senyumnya
nl
sumbangsih
amanda
lebanon
perjamuan
melej
takbir
anita
##laimer
syeikh
diincar
goo
adm
bermarkas
flying
##arasan
lac
today
rebana
karoten
klep
tandai
0821
1955
etal
panama
meneteskan
peluit
brian
adipati
gembok
sscn
kudo
neng
##ambo
boedi
lonceng
pelindo
hangout
skeptis
##oler
sebarkan
zuck
tergeletak
##inju
griezmann
kerongkongan
jai
##ored
##auda
pembajakan
pilkades
mene
pemberangkatan
soundtrack
##wh
mereng
resources
oxford
eti
iaitu
##angian
andika
2500
penanganannya
cfd
tiara
##matik
jenar
hc
rash
uterus
teralis
santos
kapita
penjemputan
ftv
dikuatkan
terlindung
supervisi
kepribadiannya
merajut
siliwangi
supern
berwibawa
tiba2
penggunaanya
erosi
fabr
baznas
segara
diteng
pembubaran
titanium
berda
nyatakan
linier
berkeyakinan
pemodal
kerena
pulak
saung
passing
digigit
kkm
##asain
diruang
##oriasis
figure
dadi
mentok
setda
##tunkan
cout
merica
mengham
cri
dihalaman
##usive
mahesa
bruce
persyaratannya
miniatur
##reasikan
when
berujar
tenggat
membid
apply
##odidak
menyejukkan
cast
cec
seindah
chara
##nament
terverifikasi
valley
ort
kadas
##erjain
clay
headlamp
merakit
newton
fanpage
lengkung
leukemia
alibaba
unnes
memperbaharui
nita
##mia
##elawan
bhab
173
hafid
keramat
diind
perser
jebol
rendam
iniesta
gd
putin
fasilitasi
ummu
##ald
eksistensinya
merajai
pocket
nurm
menyurutkan
dompu
disiram
menjerat
terjang
##kers
##amoto
##vier
border
ditampung
seyogyanya
kecaman
konglom
bonsai
dikons
majlis
sultra
keabs
oneplus
knpi
kemdikbud
diurutkan
lake
melindunginya
fana
logikan
##pia
menemuinya
memperolehnya
rubber
merajalela
##bili
meloloskan
dikonversi
##erie
bks
dikendarai
suro
##ejuk
keuangannya
pohonnya
menyeberangi
prevalensi
melihatku
iringan
keda
penerjemahan
una
perkata
excell
ushul
waduh
letnan
diperdebatkan
composite
##gaji
pabr
langgeng
##lain
heat
##aimin
rapid
kingdom
kemeri
intimidasi
imo
rantau
separ
129
kemurahan
iga
jenni
tesebut
klungkung
maxi
##300
##rac
##quet
##elli
bertengger
major
perhimpunan
floor
##buy
b1
beredarnya
terat
tenor
kueri
coating
lingu
bikers
toples
tripadvisor
##tha
##reg
mok
##unding
session
syndrome
tpi
msg
prog
menyemprotkan
extensi
menyepakati
mrs
disyukuri
bef
sukam
perincian
kelap
menyuburkan
swap
menepis
kekr
imajin
##inasakan
tungk
burhan
pemborosan
##wawasan
hole
susunya
enterprise
##okoan
internetan
villar
disclaimer
kemurnian
mendanai
##afiliasi
micr
landak
terdidik
##arus
antibak
tarifnya
diemban
logikanya
##yatan
##timbun
##shi
obsesi
rabun
dipercepat
sibol
##akarsai
##emprot
terapan
makelar
dises
##thon
buzz
s9
##umulasi
pembungkus
permisi
##fort
memut
dikantor
dipub
penyatuan
jamuan
##cab
##gusur
bullish
mickey
bingkisan
##eron
pengusung
aguero
mereb
##osotan
##edoman
memanen
gebrakan
##idi
diedit
meled
origami
ngumpul
270
penyiraman
dasa
pembelahan
menepuk
2030
##cocc
balipost
abk
tafsiran
pengemasan
membendung
gagang
diinvestasikan
hist
pungkiri
##ampus
morata
##moon
dung
arung
##onial
tenaganya
penghancuran
penjabaran
fernando
cih
ww
memberontak
dipinggir
civic
terlempar
majunya
puja
bakatnya
ketertinggalan
hiace
kecoa
rokan
sugar
ancelotti
pelni
mengena
gradasi
meluap
bernomor
##ubi
digenggam
bankroll
rein
heg
##ом
pion
klise
stars
##odes
biota
kreator
siregar
tawanan
##qa
dihaluskan
##arif
siwa
bottom
rubella
mbok
sekarat
jamannya
bmi
maia
yach
dist
pelataran
720p
haruskah
pertokoan
1928
alleg
##eberry
thamrin
kisya
irian
folikel
113
diracik
persilahkan
tarung
serambi
amn
hitler
dibangunnya
gog
##uela
kebanggan
menyekolahkan
siantar
##rel
##food
memuja
pegawainya
penindakan
##yawar
dijat
bolehkah
nest
peletakan
tertantang
kadi
erdogan
pegas
##untahkan
##ogoti
sekam
kemun
s4
##irnya
pomp
##ability
tersandung
legit
penumpangnya
kolong
mengukuhkan
##ukada
##gro
basil
psp
bolt
##ants
132
lks
prosentase
##oeng
##elengkapnya
kukuh
region
kepandaian
menyusup
kudengar
1940
sutr
membelai
##uktif
##ao
##bawahi
terlantar
murtad
ramainya
wsc
kejaran
1957
vinal
diah
berwawasan
terpilihnya
essay
giveaway
winner
menghalalkan
terpantau
effendi
endometri
banyuas
keledai
tina
mengarang
shabu
magrib
jeng
coco
nda
diselingi
mujizat
mengonfirmasi
pemancing
kepenting
116
##asihati
muna
##aron
nyasar
##kie
diasumsikan
disembah
kehijauan
buffet
pendalaman
dies
adapula
vibe
kfc
dilanjut
disus
mengomp
belalang
lever
baseball
artefak
roni
##side
mencipta
berbeza
##arno
agnes
sepeti
ibadahnya
avatar
hajatan
conditioner
munas
merefleksikan
terkuras
##feral
excl
persuasi
hyo
tebusan
menyebarluaskan
##inkam
multiple
##zania
tertanggung
unis
kening
najib
energik
falsafah
elevenia
takutkan
bec
mesias
merenggut
trepon
##ocorkan
diinter
bernab
thir
##cet
dipersilahkan
1gb
rp50
outlook
coli
dikand
##rih
hamas
shalatnya
kelelawar
cowo
ipm
radit
numer
volatilitas
meb
mengklarifikasi
##ffy
darul
##umlahkan
pengelolaannya
##ild
selling
gratifikasi
golput
lembap
berwudhu
siksaan
perca
ukhu
j2
wik
##run
berantai
tersohor
mount
difteri
praktekkan
##aidi
menpora
provokasi
##dong
korps
5s
vac
##oha
##mania
refrensi
candy
menceng
vinales
##gent
belit
##olly
fixed
iyah
maskara
penawar
kran
##heim
124
lafa
backpack
ces
menepati
kuj
mencuc
membuangnya
mendahulukan
knee
a8
menghentikannya
ulum
islamiyah
##alat
##fikasinya
1942
berpedoman
gurame
pulalah
legitimasi
carolina
##hoi
tabur
##bach
diac
vegetasi
##alaikan
komunisme
hendri
fikri
luhut
##oning
nadia
##inet
mengindahkan
berkomp
terbel
kudapan
treponema
##lunya
##bukannya
kakap
##endahan
better
##isipasinya
lesehan
kekristenan
programming
membayarkan
seingat
description
seed
anony
guangzhou
##amalan
kekhasan
pelaminan
terbengkalai
##osin
ketidaktahuan
peranti
alor
bumbunya
slta
rally
membekas
perlakukan
bertepuk
tuber
getar
cooker
feel
melansir
dicontohkan
kemaksi
villarreal
depanku
##waringin
wewangian
dibum
terbayangkan
##world
teddy
volt
banyuasin
silah
selada
pasak
segmentasi
boys
giga
cushion
cile
gardu
##ikor
menyindir
##taya
equip
supranatural
langsa
orch
jav
comput
hypn
williams
tergila
##mor
bernegosiasi
oksidan
evi
##ugat
##sekal
ketangguhan
prec
##arja
ganjaran
draf
##giatan
malaga
sensus
diketuai
haluskan
konstitu
frase
pujaan
bernabeu
penghidupan
##asha
heavy
didanai
aksesib
mengubur
nyaring
golnya
kontekstual
stretch
##patri
##organik
galang
tac
memperdulikan
marsekal
document
melonc
##embara
pesug
gonorrho
vokasi
controller
fortuner
cherry
coutinho
##bis
berbelok
keterp
##tong
##87
direbut
sukarelawan
keikutsertaan
lokakarya
##arish
tercetak
perubahannya
##aduate
pengawalan
khatulistiwa
dikupas
menginjakkan
bergej
jemari
saif
paving
dikritik
boyke
##usim
##ois
##oreksi
simpatisan
kekan
##uhinya
vocal
menakut
autisme
pemukulan
##angkiti
berlarut
mengecat
lpm
mendorongnya
giias
irawan
perintahnya
pipis
syukurlah
membenc
concealer
menyun
##ucci
shortcut
bijinya
antibakteri
cola
lid
mendikbud
spl
banya
herba
dikeluarkannya
tekhnologi
##timidasi
kent
larang
sf
analysis
##media
grammar
sukan
myung
cf
##rakat
simulator
##adaanya
menghalau
##okimia
hidrok
energinya
baling
diaduk
meregenerasi
pomade
penyambut
dahaga
##esraan
##aden
jambang
##hea
outfit
##x200
##150r
tarekat
tasbih
jemur
##naker
##egun
sasarannya
ngaj
hn
menunggunya
terhingga
pustakawan
winter
127
##ratnya
j5
andapun
lost
td
menemaninya
writing
terabaikan
pemilukada
dipecah
menyukseskan
berpose
reload
pringsewu
muri
mengagetkan
penggalan
diamalkan
worth
neh
von
alexis
penyebarannya
mahdi
rig
meteran
mempersatukan
##unce
berdalih
optimiz
tehnologi
##1m
kebat
dipatuhi
nged
batasnya
turbin
abri
wakapol
terdampar
angkuh
jpn
##pcs
syamsul
keperkasaan
carl
##angkaraya
##dimensi
ghost
perem
satin
buletin
assad
infert
##odohkan
##zioso
arthur
wajo
nelpon
khaz
plate
they
kt
akhiri
vertical
jesus
aulia
##bot
sempatkan
dilaksanakannya
mediteran
tuli
##versary
squad
##ouse
sist
##enggel
kalijaga
lyon
nostalgia
##mul
desi
inggrisnya
melemahnya
banana
338
berpelukan
luck
##ondisikan
jemb
mate
##ghfar
pertik
survival
##angkanya
menggagalkan
dadang
masam
gabriel
eksplisit
kemeriahan
##fied
megapixel
dileg
palangkaraya
malasan
##uard
pemasarannya
qr
digal
milla
gemas
lahat
tercengang
infertilitas
shalawat
kekag
perbendaharaan
loyang
menatapku
pesugihan
yng
adaptor
pahal
belumlah
dispenser
wkwk
prewed
##inas
diperebutkan
saklar
##antic
##enix
bobo
phablet
jennifer
##rough
ngaw
sunni
seal
tiru
hdpe
i5
##rinya
ishak
##inkamtibmas
otodidak
memungkin
##ontor
lippo
ibrahimovic
reses
inhil
friends
##panel
menyiram
kumur
##engers
baek
##dirikannya
berkedudukan
membagikannya
gaes
terangkum
gahar
memliki
berhembus
meet
pkp
jonathan
dititipkan
futuristik
vihara
asteroid
hormati
##pong
##ref
rebutan
etalase
yl
##eliling
venezuela
tersend
qadar
memblud
menghabisi
sauna
##tiva
##rd
duty
kesanggupan
disiksa
chile
##ines
palopo
enim
5g
kuali
karangasem
الله
jawapos
zur
naif
vicky
porto
hisap
mencengangkan
##pass
aya
##umuran
kanwil
indri
pengasihan
##akal
rivalnya
gary
pengejaran
glossy
sesulit
##ombinasi
traveller
beradik
resensi
menjenguk
bernaung
purnomo
bisik
1900
wolf
namja
memusnahkan
tissue
penyajiannya
telefon
sajalah
mois
bumper
berjauhan
memimpikan
##oled
agaric
rasis
powerpoint
refleks
mengharukan
hotelnya
dijemur
organization
##ipal
wen
##elu
khit
penginj
rafi
simpatik
restorasi
##dapatan
keluarlah
ite
menjij
memberiku
fardhu
jingga
guardian
juna
menghembuskan
warri
berjuta
visit
frozen
terlampir
mendokumentasikan
penjahit
renta
lucas
##andangkan
##aves
1947
julian
zonasi
gbp
dovizioso
kik
##ambal
luluh
pengagum
##ativ
kaprah
##ilh
pakde
aliyah
yudha
aplikator
disingk
accounting
yuri
carlo
pbnu
ketukan
##gori
menua
envir
application
pemujaan
fon
##ambatnya
seperlunya
##epti
papilloma
polwan
sidebar
offer
disepanjang
pantulan
membanjiri
pansel
##ekwensi
meramalkan
tabiat
bender
suryo
berlabel
hubungkan
##iskus
pemasang
dianggarkan
trem
mengurungkan
ekspos
terdekatnya
rik
##tangga
peluk
rakitan
kebay
pemelihara
dilak
merayu
muhamad
juice
bart
dhuha
olive
sja
yaris
memendam
sumbatan
kepentingannya
pulo
jurgen
musnah
searching
pim
tiff
loyo
[...]
